00000000101111000000000011001101000000000010010111111111111010011111111111000111
00000000010101101111111110110111111111111011001100000000000000010000001101010101
00000000011000001111111100001110111111111111010011111111101011111111111101010010
00000000100101010000000000111101111111111001010011111111101010101111110011000110
11111111100101100000000000010101111111110000000111111111100100110000000011111111
11111111101011010000000010000010000000100001101011111110101110111111111011100011
11111111001110100000000001101100000000000011000111111111001111010000000001001111
00000000101010111111111101111000000000001010010000000000010000110000001011110011
00000000100110110000000101011000111111111000011000000001101110010000000000000000
00000000111111110000000000101011000000001011010011111111100001010000000000000000
11111111111000101111111111001111111111100000010100000001101101100000000000000000
00000001011111100000000111111101000000000000000000000000010100000000000000000000
00000000111110101111010010101000000000000000010100000000101010010000000000000000
00000001010001001111110101001011000000100101001011111110011100100000000000000000
11111110110110010000000110111101111110101101000000000001011001010000000000000000
00000000100110101111111011101101111111101000011011111110111001000000000000000000
00000000001111111111111101011000000000000100111111111111101010000000000100000111
00000000011101101111111111010101111111111111010111111111000001010000000000000000
00000000111011101111110001000100000000000111001111111101001111001111111111111001
00000000011100001111111001001111000000000000011100000001001101000000000000000000
11111111011110000000000111110101111111101100011011111111100000000000000000000000
11111111110111111111111100110111111111101011101011111111001001000000000000000000
00000011000101010000000000000110000000010101100000000011001100110000000000000000
00000100000001001111100001010100000000001000010111111110011001000000000000000000
11111110101000110000000101100111000000010101011011111111011011000000000000000000
00000001100000101111111101111010000000000110000100000000011010100000000000000000
11111110011110110000000010100101000000010111000000000001001001000000000000000000
11111110111100001111111111001001000000001000111000000000011001000000000000000000
00000001001111010000000010011011000000001110000011111111101000110000000000000000
00000000100111110000000000000111000000010110001011111111010111010000000000000000
00000000111111100000000001000111111111110111110100000001010000100000000000000000
00000001000000100000000110001101111111101110000011111111100000100000000000000000
00000001110111111111101010111110000000000000010000000001010101010000000000000000
11111110111011001111111110100001000000000101000111111111000010110000000000000000
11111111011000011111110011101010111111110101011100000001001010100000000000000000
00000001001100001111111000000100111111110001111100000000000100100000000000000000
11111111000010000000000001011010000000000110110000000000001110100000000000000000
11111111000101000000001110010111000000010100111111111110100101110000000000000000
00000001000000111111111111100100111111101111101011111111010111110000000000000000
11111110101110111111111011100101111111111111011100000001000010000000000000000000
11111111110111000000000010011011000000001000010111111111001011100000000100010000
00000000101100011111111100011010111111111011111100000000000101000000000000000000
00000000000101111111111111100111000000010101101111111110010110001111111110011011
00000011001111011111111001000011111111111010110100000000110110110000000000000000
11111110010000101111001101110110000000101011111100000010001010100000000000000000
00000111101011110000000011110001000000001101000000000010101001110000000000000000
00000001100001011111010100001001111101100000001000000101110110100000000000000000
00000100111100010000000100111000000000011100111011111100111010100000000000000000
11111101111001101111111000010000000000010100000011111111110000100000000000000000
11111100010010000000000010000111000000100011011100000001101101100000000000000000
11111111100001110000000000110101111111111001001011111111000011100000000000000000
11111101110100001111111011101110000000011001001000000001001100100000000000000000
00000000000111110000000100110111111111110010010100000001101110100000000000000000
11111110111010011111111101110110111111101011010100000001101111000000000000000000
00000001110000001111111011001001000000010100011000000001101001000000000000000000
00000000001111111111111110001100111111100010010011111110100100010000000000000000
11111111000000100000000110100001111111111001110000000000011101100000000000000000
11111110011000001111111000110011000000001001101000000000010111110000000000000000
11111111111101010000000110100101111111110111111000000001110110000000000000000000
00000000000111011111111011000101111111111001011111111111110110010000000000000000
00000000101110000000000011101000000000110001001111111101001000110000000000000000
11111101111000010000000011011110000000001010110100000011101100010000000000000000
00000010011010101111111111101100111111010001100011111110001011010000000000000000
00000000000110010000001010000111000000001111111111111111110110110000000000000000
00000010001011000000001000001111000000100101000111111110000001010000000000000000
11111110110001011111110101010000111111100111110000000010101001100000000000000000
00000000111011011111111101011001111110010100000000000001100101110000000000000000
11111110100110110000000010111000000000001010101111111111100101100000000000000000
11111111011010111111111101111110111111110111111100000000011101111111111111100101
11111111011010001111111101010000111111111001110011111111100100010000000000000000
11111111111001001111111110101010111111111001000000000000011001100000000010011011
00000000101010010000000001000000111111110110001011111111010010110000000000000000
11111111110101000000000110010001000000010000000100000000001010010000001010001010
00000000010110111111111110111010000000001110000111111111101111010000000000000000
00000001101001110000000010010110000000011001000000000001000000010000000110001101
00000010010111100000000000100100000000000111010100000000011111000000000000000000
11111111100011011111111000010100111111000110100011111111010000100000000000000000
00000000100001111111111011111111000000110100011100000011001000100000000000000000
11111111101100111111111011011011000000000000010000000000100100110000000000000000
00000010001000100000000101000001000000101101110000000000011101110000000000000000
00000000011110001111111110011100111111011101110111111111111111000000000000000000
00000100010100000000000011110110111110111010001000000000101100000000000000000000
00000001001111101111111000010000111111111110010000000000110010010000000000000000
11111111110011010000000101001101000000011110101100000000000110100000000000000000
11111110101101000000000001110111111111011101100000000011000101100000000000000000
11111011101110000000000101001001111111000100000111110100110000110000000000000000
11111001101000001111111101010111000000011110011011111100001100100000000000000000
00000010101111001111111110011010000000011101000100000000110010000000000000000000
00000010101110011111111111101000111111100010010100000001111010100000000000000000
00000001011101110000000010010010111111011101110011111110111010010000000000000000
00000001011011010000000010010111000000001001111100000010001011100000000000000000
11111110011101111111111100111011000000001010000111111111001010000000000000000000
11111111111101010000000000101100000000001000101011111111100001100000000000000000
11111110101100110000000101011001111111111000011000000001011011100000000000000000
00000000010010110000000100111001111111111000111111111110111111100000000000000000
00000000011010110000000001111111000000010010110000000000101011000000000000000000
11111111110111001111111101011101111111110011001000000001010000110000000000000000
11111110101100100000000010000010000000000011000011111111100100100000000000000000
11111111100000101111111100000010111111110011110100000000000000110000000000000000
11111110110001111111111101010001000000010100100111111111010110000000000000000000
00000000000001011111111111100101000000001111010000000001011001000000000000000000
11111111101010011111111100111110111111101000111000000000010100100000000000000000
00000000101011010000000000001111111111111101101100000001011010110000000000000000
00000001011001000000000010011011000000001000011000000000100110000000000000000000
00000001010000100000000011001100111111111000001011111110111010000000000000000000
00000000011110000000000101111001111111111010011000000001100000010000000000000000
00000001011100110000000010000111111111101100110111111110110010100000000000000000
11111111110011100000000001100001000000000010010111111110101100110000000000000000
00000000010000010000010110000100000000001101010111111110110111100000000000000000
00000000000110001111110011111101000000011011000111111111100100100000000000000000
00000010100100111111111101101000000000101111001000000000010011000000000000000000
00000001101010011111101001000111111101000101010111111111101100110000000000000000
11111110011101011111111100111010000001001111111100000000010101110000000000000000
11111110000001001111111010111011111111100100100100000001110001110000000000000000
11110111011110011111111111010010111111110101001000000000011010010000000000000000
00000001111011011111101001000001000000000010001100000000010100000000000000000000
00000001011000010000000101001110000000001000011011111010100111110000000000000000
00000001101100011111101110101101000001100000100011111101110001010000000000000000
00000000100001000000000011000101000000000001010000000001101101110000000000000000
00000000110010001111101101101010000000111010111011111101111000100000000000000000
11111110001001010000000011110010111111101000000100000001111110000000000000000000
11111111111111100000001001101111111111111010101011111111001000100000000000000000
11111010110100100000001100011110111111100011100100000011010100000000000000000000
11111110110010110000000001010001111111110001011100000000011100110000000000000000
11111111100011101111111110000111000000000011001011111111111010011111111111010110
11111111111011110000000000001100111111111100001000000000110001110000000000000000
11111111100000100000000001111101111111111001100000000000001110010000000000101000
11111111010101110000000001000001000000000101111111111111100001100000000000000000
11111111001011001111111111001101000000010101001011111010111000011111111100000100
00000010000000101111111101001111000000001111110000000000110110010000000000000000
00000001011100111111111001000010000000101110011000000001101111011111111000111000
00000010011101100000001011001101111111101101001100000010001011100000000000000000
11111111011000011111111101111111111111010000110100000001011011100000000000000000
11110101100001010000000010001110000000001111111100000000110100000000000000000000
00000010011011000000000010111101000001011000011111111111101110000000000000000000
00000001000001110000001010100110111111101101100111111010000001000000000000000000
00000011011111111110111010100100111111011011111111111001101010010000000000000000
11111100100101111111000000111001000001010010110011111111010000010000000000000000
00000100101110110000000010000001000000101101101011111110110111110000000000000000
00000001110001000000000011000001000000001100011111111110110001100000000000000000
00000100001001000000000100110111000000010101011011111110111111010000000000000000
11110011110101110000000111101001111111110010000011111110111011000000000000000000
00000000011010101111111111100001000000001001110011111111100111100000000000000000
11111101111000011111111000011100000001001010111111111111100011000000000000000000
00000001011110110000000110011111111111111111111000000000001000000000000000000000
11111111101011101111110100101100000000100101000100000001000010010000000000000000
00000000011110011111011010100110000000001010100100000000101011110000000000000000
11111110011111001111100111011111000000100101001111111011010100100000000000000000
00000001000001000000000100010100111111110001000000000000100010100000000000000000
11111111011000010000000110110000000000000011110111111111101000000000000000000000
00000101111110111111111101111001111111011101011011111110101011000000000000000000
11111110001011101111111010010110000000010111001000000000110101000000000000000000
00000001011000011111111110110100000000100101011100000010000101010000000000000000
00000010110001101111111001010100111111111000010111111110100001110000000000000000
00000010000011011111111110101100111111001001110011111010111000010000000000000000
00000011111001001111101000110111000000001100100100000000111011010000000000000000
00000001111010000000000000101110111111011110011000000010100101100000000000000000
11111110110000110000000110011001000000010010100011111111010100010000000000000000
00000001001110100000000010011110111111110010010100000000011110000000000000000000
00000000101101100000000000011100111110100001110011111111011010110000000000000000
00000000011001011111111101001000111111011111110000000001000010010000000000000000
11111111101111010000000001010111000000010111000000000001101111110000000000000000
11111111101001111111111101101001111111011001110100000000001011100000000000000000
00000000111011000000000000011000000000010011100011111111011000100000000000000000
11111111100100001111111010011101111111101001100000000000100010110000000000000000
11111110111010000000000001110101111111110001111011111111111110000000000000000000
11111110011110001111111011011110111111101110101100000000010010000000000000000000
11111111011111011111111111001110111111111011110000000000111111100000000000000000
00000000110010111111111110001100111111111001011100000000011010100000000000000000
00000000100101100000000010001111111111110010101000000001011011000000000000000000
11111111001010101111111001111000000000010010111000000000010111110000000000000000
11111111010110001111111101101111111111111001011111111110101000000000000000000000
11111111111101011111111100001010000000010010001000000000000100100000000000000000
00000000101101001111111010110011111111101100101011111111011101100000000000000000
00000000011001111111111011001000111111101110000111111110100000000000000000000000
00000000001110100000000100011110111111110001110011111110100000110000000000000000
11111111111010100000000000100101111111101101011011111111100101010000000000000000
11111111010000001111111011011000000000010010110111111111010110100000000000000000
00000000000000011111111101110010111111110000000000000000101000100000000000000000
00000000001011011111111011010001111111101101011100000000010101000000000000000000
11111111011110001111111100000001111111100010100000000011100100010000000000000000
11111110110001110000001011010000000000100000101011111100000101010000000000000000
00000001111001001111111010011111111111001100000111111001111000100000000000000000
00000000111010101111111111111010111111111111000000000000101001010000000000000000
00000000010000011111111111011101111111011100100011111110101010110000000000000000
11111111001111110000000111011001000000010110010100000000011101110000000000000000
00000001010011001111111111111110111111111111100100000001000011000000000000000000
11111111111010010000000011010001111111100111110111111111111001110000000000000000
00000001111110001111111111101101000000010000111100000000100011000000000000000000
00000001010010000000001010110011000000001101000011111110101011000000000000000000
00000001000111100000000100101001000000001001100111111100101000010000000000000000
00000001001100111111111110000111111111010111011111111011000010100000000000000000
00000001011011110000001000011010111111100100011000000011000011000000000000000000
11111111001101000000010111011010000000001001111000000001010001010000000000000000
00000001010110100000000011111001111111101000111111111101101100100000000000000000
11111111111110100000000000100111111111111101000000000000000100010000000000000000
11111111111100111111111101101100000000000101100000000000001010101111111110110101
11111111100110001111111100111110000000000001011100000000011111110000000000000000
11111111011101111111111111101001111111111110100000000000011100011111111110000111
00000000101001111111111101101100000000000101000000000000010110100000000000000000
00000000001010100000000011000000000000000110100100000011110000000000000100000111
00000001000111100000000000100101000000000111001000000000001100110000000000000000
00000001011110001111111111111011111111100010110000000001110010000000000010011010
11111111000111000000000101010010111111111111011011111101110100010000000000000000
11111111101011101111111101000100111111111111000100000000111101010000000000000000
11111111000100000000000010011011111111100001111100000010111011110000000000000000
11111111101000011111111110011001111111111000001011111110100101110000000000000000
00000000001111110000000010100111000000010111001100000010001100010000000000000000
00000100010110100000001001000001000000000101100000000000101010010000000000000000
00000000000010101111111100101110111111001101110100000001000101110000000000000000
00000000001010010000000001110000111111110111111011111110111000100000000000000000
00000001100001010000000101100010000000110001100011111110010001100000000000000000
00000010000000010000000001011101111111100001010011111111110110000000000000000000
11111111010011010000000110010000000000101101100111111111001101110000000000000000
00000001011010001111111101001010111111101101111100000001100011100000000000000000
00000000111011000000000011111010111111000000001100000001010000110000000000000000
00000001101110010000000100111101111111110110111011111110010110100000000000000000
11111110111001111111111101001001111111111001010011111111100011100000000000000000
11111111111101110000001110000111000000001011010011111101111011010000000000000000
00000000100010101111110100011010000000001011111100000101111000000000000000000000
00000000100100100000000011011000111111111101110111111100001101000000000000000000
11111111010101000000000111101010000000000011111011111110011110110000000000000000
00000010111011111111111100110000111111101101111000000001101011000000000000000000
11111110110100110000000011110111111111110001110000000010110001110000000000000000
00000011111011111111110100000101000000000011011111111111010011010000000000000000
11111111110100100000000110000010111111100111011111111110101011000000000000000000
00000010001010011111111001111000000000000001111011111111000001010000000000000000
00000001110111110000001001100010111111101101110011111100110010110000000000000000
11111111001011010000000010101111111111111110101100000000010001000000000000000000
00000000001011000000000010011111000000010100010111111110001000010000000000000000
00000000100001001111111111110110111111111101100111111111110110110000000000000000
00000001101010000000000001001011000000101110001011111001111110000000000000000000
11111110101011001111110111101110000000000110011000000000100011000000000000000000
11111111010001011111111101010001000000101100010100000000101111000000000000000000
00000000000001110000000010011010111111011111100011111111101001110000000000000000
00000010001001000000000110101111000000001000001000000001010000100000000000000000
00000000100110000000000000101110111111110111101000000000101000000000000000000000
11111110110111010000000101000010000000000001110111111111010001100000000000000000
00000000111010111111111110110001111111101111111100000001000011010000000000000000
00000000100000111111111011011000000000001101010011111111100100000000000000000000
00000001001001000000000101110111000000010001101100000001100010110000000000000000
00000001001101101111111011010011000000000110100100000000011111000000000000000000
00000000111110100000000100110000111111101101001111111111000001100000000000000000
00000000101011111111111110110000111111111111000000000000000000110000000000000000
11111110110000100000000011010111111111111000111000000000010110100000000000000000
00000001011011000000000101100001000000000010010011111111110111000000000000000000
11111111010110111111111011010011000000001101110100000000111100110000000000000000
11111111000111100000000001000000111111101111010000000001100000100000000000000000
11111110100000110000000000111111000000010100000000000000110101110000000000000000
00000000000111101111111110100101111111110001101100000000000011010000000000000000
00000001010001000000000101010000000000001111110011111111000000100000000000000000
11111110101010101111111010111011111111110111010011111111000010100000000000000000
11111111001100011111111001101001111111110101100000000001010100010000000000000000
00000001001111110000001101110011111111011110101100000000110011000000000000000000
00000001011010011111111011011000000000101011100100000001010011110000000000000000
11111110011101001111110010101111111111010011011111111101011100000000000000000000
00000001110101010000000000110001111111111100111100000000000100100000000000000000
11111110001000011111110011010111000000001000001111111111000011110000000000000000
11111111111001011111111000001100000000101011011100000001101011100000000000000000
11111011111001000000000101110010000000000011101011111111000110000000000000000000
00000000010000011111111100110101111110011111101100000010000100110000000000000000
11111111111001000000000000101110000000000100100111111110110011100000000000000000
00000001011100011111100110010001111111101011000100000010001011100000000000000000
00000001100110111111110111101000000000010001011100000000001001010000000000000000
00000000001001010000000110111010000000011011111100000001110000000000000000000000
00000001011110010000000001001010111111110000010100000001000111010000000000000000
11111011110001111111111111000001111110001101101111111101110111000000000000000000
11111110101010111111110010001001000000011110000100000000001110000000000000000000
11111111111111001111111101000110000000000101000111111111111000001111111110101010
00000000001110000000000001011000111111110110111011111111010001000000000000000000
11111111001111010000000010011100111111110100000000000000011100011111111110011010
11111111101111110000000000011000000000001100100000000000011110100000000000000000
00000010101111110000010001011101000000000111111100000000111100110000001111001100
00000011011111010000001100000000000000110010010011111111101001010000000000000000
00000001110101100000000010000100000000000110111000000010000010000000000010011011
00000000011000100000001100000011000000001001011011111111101000110000000000000000
11111101111010101111111110001100111111100111011000000001010011100000000000000000
00000000011100011111111011010001111111111101010100000000000010010000000000000000
11111110010101011111111111010001000000000111011000000001010011010000000000000000
11111110110011001111111111101100111111011111010000000001001101110000000000000000
11111110000100100000000011100101000000000100111011111010100001010000000000000000
11111100100100001111110110001001000000000011100111111100010111110000000000000000
00000000101100101111111000110111000000000100100111111111100011000000000000000000
00000000100001011111111111111000111111100010101100000000011000100000000000000000
11111111010010100000000001000101111111110000011100000000000100010000000000000000
00000001001010000000000001111011111111110100101111111110010010000000000000000000
11111110010011101111110111011001111111010000001100000010011010010000000000000000
11111011101110011111111100110010000000010001000000000000010010110000000000000000
00000000001001010000000011011000111110011000011000000001110011100000000000000000
00000010001100101111111111110001111110110111010011111110011100010000000000000000
11111110101111011111100110100110111111101010101000000000001101110000000000000000
00000000001100010000000000111011000000111100011111111010100101010000000000000000
00000000110111110000000010110110000000010110100111111111111001110000000000000000
00000000010011100000000011111001111111101101101100000001001010110000000000000000
00000000010100011111110101111011111111110010011011111010110100000000000000000000
11111111110011011111111011010101000000101101001100000001100110110000000000000000
00000010100001011111111010100110111111000001110011111111010000110000000000000000
11111110110101110000000110111011000000010010100111111111101000110000000000000000
00000100001100101111011100111101111111111000111111111100101110100000000000000000
11111110110110011111111000010101000000011001111100000001110110110000000000000000
00000010001001111111111110011100000000010011111100000000111010000000000000000000
00000001000000111111111000001001000000100011110100000010010010010000000000000000
00000001110100110000000011100100000000011001100100000001011010010000000000000000
00000001100001011111111010100000000000101001101011111110100001110000000000000000
11111101110111111111111111110111111111101110000100000000001001110000000000000000
11111111111101011111111110001010111111011011010111111101110100010000000000000000
11111011110110101111111101100110111111111001010111111101110100000000000000000000
00000010011101011111111111101110111111010011111111111101101010110000000000000000
00000011111110001111101100001010000000100110111011111101010100110000000000010011
11111100011111101111111100110010111110001010110000000110101111010000000000000000
00001001011000010000001111111101111111011110110100000011011010110000000000000000
11111110110101111111110111111110111111011101011000000001110000000000000000000000
11111111111011011111110101011001000000101010010000010100101000000000000000000000
00000010100010011111111000101100000011011100011111111110111110000000000000000000
00000001100001001111110011001110000001010000011100000010101011010000000000000000
00000011011011101111111010110000111111101001111011111010011100000000000000000000
11111111000100111111111010101010111111011100111100000000011101010000000000000000
00000111000100101111111010111100000001110000101111111100100001100000000000000000
00000101101000111111000010101001000000100111100111111111101010110000000000000000
00000100110101101111111101100101000001011111111100000010001000100000000000000000
11111110111000101111111010111110111111111101010011111101100000010000000000000000
11111110101101111111111111000000000010010000000011111111111000100000000000000000
11111111000011010000000101001010111110111111011111111110001111000000000000000000
11111100010110000000000100101110000000111010101000000100101101010000000000000000
