00000000001010111111111101101000000000000010111011111111110100011111111110110001
00000000010111100000000010010001000000000001010000000000000110000000001010010110
11111110111111101111111110100101000000000110100011111111110000110000000000011110
00000000100011101111111010100111111111110111101111111111101000111111110010110101
00000000100011000000000011001110000000000010110111111111110101011111111100110000
11111111000001001111111110100011111111111010011111111111001110011111111001100110
00000000000000011111111110111000111111111011111011111111010101000000000001011101
11111111100011110000000000100100111111111010011011111111011010110000010000110100
00000001101100001111111111010100000000011100000000000001101110100000000000000000
00000001000100000000000010110100000000010110010011111111111000000000000000000000
11111111000011010000000100111100000000011010101100000001110111100000000000000000
00000001110000001111111100101110000000010010000100000000100000100000000000000000
00000001110000101111111101110101111111101111001100000001101111010000000000000000
11111111110100101111110110111111111110111000011011111101110110100000000000000000
11111111011111001111111011001011111111001101010100000000111111100000000000000000
00000000101110000000000010001100111111110011011011111111100101010000000000000000
11111111101010000000000011110001111111110111100000000001000100111111111110101011
00000000111101010000000001100110000000000010000011111110111011010000000000000000
11111110111100000000000100101110000000110111110111111110111101000000000101110101
00000011010111011111111101110011000000000010100100000000001101000000000000000000
00000000101011110000000000000101000000001011100011111100010001000000000000000000
11111111001110010000001000101011111111111110110000000011010010000000000000000000
00000000001100011111110100111001111111100101110111111110011101000000000000000000
11111110011111001111111011111010000000000100000000000100010010010000000000000000
00000001000100000000000000101010111111110001101011111110111110110000000000000000
11111111000101010000000000101111111111111110100111111111100010100000000000000000
00000000101100101111111111110010111111110111001011111111000000010000000000000000
11111111011010111111111111001010111111101011100111111110100010000000000000000000
00000001000101111111111111010000111111111111111100000000100001110000000000000000
00000000111100111111111101110100000000010111100111111111110111100000000000000000
00000000100110011111111010011010000000010101110000000000011110100000000000000000
11111111010000010000000101101100111111110110001111111111000100100000000000000000
11111110100110110000000101100010000000000001010111111110001101000000000000000000
00000001110001110000000011110100000000101000101100000010010100010000000000000000
00000001100111010000001001001110000001000100011011111101100100100000000000000000
11111111100100100000000100011100111111111001001011111110011011110000000000000000
00000101010100110000000110110101000000011011001011111111101101100000000000000000
11111111000101110000000000100000000000001010011000000100001001000000000000000000
00000001000101010000000100111010000000010111001111111110101010010000000000000000
00000001010100110000000111111011111111111001010111111110111001100000000000000000
00000000101111100000000011110101000000000100010111111111000101000000000000000101
11111111101000101111111101011010000000000011001000000000111100110000000000000000
11111111010000100000000011011111000000000010100011111111100100100000001000010001
00000001000101011111111110001000000000000101100000000000000101110000000000000000
00000010111001101111111011111100000000010011010000000000001010000000000000000000
11111001011100001110100010010001000000100011000111111101001000110000000000000000
11111110011100000000010011000101000000100000000111111111010111000000000000000000
11111001011111000000001101011110000000011000101111111100011110010000000000000000
11111110100110111111111011110000111111100100011000000001111100000000000000000000
00000010010101010000000010101000111111111101010111111110101011110000000000000000
00000100110010011111111010111100000000000000110100000010001011000000000000000000
11111101000000001111111100010010000000010110100000000001011010000000000000000000
11111110110010101111111011001010111111100011001011111110000100100000000000000000
11111110000111111111111000100000111111111101111111111111100000010000000000000000
11111111010100011111111100001010000000000100111000000000111001100000000000000000
11111111000010111111111110011001000000000111110111111110101111000000000000000000
11111111001101010000000011001011000000000011010111111110011011110000000000000000
00000001001010000000000100100100000000011000111000000001111100000000000000000000
00000001100000010000000010101010111111111001001111111111111111000000000000000000
00000000100111001111111001000001111111100000101011111110001100000000000000000000
11111100110010111111110010101011000000001101111011111101010000100000000000000000
00000001001011011111111001001001111111101111100000000000000010010000000000000000
00000000011000000000001000101011111111110101101011111101110101010000000000000000
11111111111110100000000100101101000000011111010000000000010111000000000000000000
00000001110100011111111110101111000000010001001011111101001001100000000000000000
11111111111110011111110100011101111111110110101100000000100110000000000000000000
00000000100111100000000111001000000001001100111011111101011010010000000000000000
00000000010010100000000101000111111111111100010000000011010111100000000000000000
00000000010011001111111111010011000000001011101100000000001001101111111101011100
00000000011010010000000010000000111111111001110111111111010100010000000000000000
11111111010100011111111101111101000000000101100111111111111000001111111101110110
11111111001111010000000001111001000000000111111011111111111001000000000000000000
00000000110100000000000100101000000000010000001100000000010111010000001000010110
00000000110001000000000001011011000000001000010111111111111001100000000000000000
00000010001111011111111101110000111111101111000100000010010000011111111011001100
11111111111000000000000011111111111111110011111000000000000110110000000000000000
11111111010000011111111001001010111111000011000000000001011100110000000000000000
00000001101100100000000001100010000000111001001011111111010000010000000000000000
00000000001010101111111000011110111111111000110000000001110010100000000000000000
11111111000001110000000101110001111111110001001000000001001000010000000000000000
11111100010011011111111011101111000000010100100100000001000001110000000000000000
00000010111100100000000100011101000000111001001111111111100110010000000000000000
00000010011111110000000111000110111111111101000000000000100101100000000000000000
00000001011110011111111110010011000000011101111000000001110100110000000000000000
00000000111000111111111100110100111111100111100100000001101001000000000000000000
00000001011011001111101001111101000000110000011100000000101011110000000000000000
11111100101000000000000111010011000000100010011111111111001100010000000000000000
00000010101110110000000001010101000000101011000111111000001111100000000000000000
11111111010111110000000111100110000000011001110011111110111000000000000000000000
00000010001011000000000000010100111111110110100111111110111011110000000000000000
00000001011110111111111100111101111111100000010011111111100000000000000000000000
00000001101110010000000001011010000000001011100000000000000000000000000000000000
00000001010011000000000010000010111111111110100011111111100000000000000000000000
00000000001011001111111010101111000000010101101100000000000010010000000000000000
11111111100101001111111001111010111111110101010011111111110110100000000000000000
00000000010111111111111111100110000000001110011111111111110001110000000000000000
11111110011110011111111010110000000000010000011100000000100001110000000000000000
11111111100010111111111010101111111111110010001011111111011111100000000000000000
00000000000001111111111100101111111111110011001111111111111011010000000000000000
11111111001011101111111100101010000000010000101100000000101111110000000000000000
00000000111100000000000011010010000000001001111000000000011111110000000000000000
11111110101000000000000100110100111111101101100011111111100001000000000000000000
11111111101100110000000100010001111111110111110000000001100000010000000000000000
00000000010000000000000010011000000000010000101000000000010000010000000000000000
00000000011001010000000100010101000000000111111100000001000110010000000000000000
11111111000110001111111101111001111111111001111011111111111101100000000000000000
11111110101110011111111111110010111111101001111111111111001110010000000000000000
11111110110011000000000011010101111111111111011011111110100111010000000000000000
00000010011100010000001011000110111111101011000000000100010100110000000000000000
00000001001010110000000011000110111111010001110000000000101001010000000000000000
00000010011110011111110011000000111111100000110000000000101111010000000000000000
11111111010100010000000011010011111111111010111011111111001111110000000000000000
00000100100010111111111100100000000001010000010000000001111110100000000000000000
00000011001101010000000000101111111111011100100111111111110111000000000000000000
00000000010100110000000010001001000000110100000100000001101100100000000000000000
11111111001011111111111001101011000000100011110000000000110111000000000000000000
00000000000100100000010011111001000000001101000111111101000000000000000000000000
00000000101001001111111111101011000000101100000111111110101001110000000000000000
11111111110111111111110100010101111111011000011111111110011011010000000000000000
00000001000000010000000000001100000000101011011000000001010110100000000000000000
11111101110001000000000110100111000000110001100000000001100111010000000000000000
00000000011100101111011000100101111110111110101011111001001000110000000000000000
11111110111101111111111111101100111111010101111011111110001010010000000000000000
11111110001101101111111000010010111111000110000100000001010111000000000000000000
00000000000111111111111111011001111111111010100111111111100111001111111110100000
00000000010001101111111100111010000000001010100000000000000011110000000000000000
11111111101011010000000010101010111111111111011011111111100001111111111110111100
00000000001100011111111101010010000000000010100000000000010101000000000000000000
00000000010100100000000000100011000000000010010100000001101110110000001101010100
11111111101000110000000001110100111111111101011100000000000000000000000000000000
00000000001110100000000101001110000000100000000111111110110111110000000010100011
11111111101010110000000001000001000000001010101100000010010010010000000000000000
00000010011111100000001001001010000000000001001011111101110110010000000000000000
00000010001000011111111101100001111111110000100111111100001101000000000000000000
00000010001000101111111001001110000000110010110111111000000001010000000000000000
00000100001101010000010011001111111111100100011100000000110100010000000000000000
11111100011000000000000010001101111111110010000000000010001111000000000000000000
11111100100101010000000010101110111111100101000100000000010101110000000000000000
11111010101100101111111110111101111111101110000100000000111011010000000000000000
11111100110001001111111111111000111111010011010111111111000010110000000000000000
00000101001001101111111111000110111111100110010111110000010110100000000000000000
11111001011111100000000101111100111011111010101011111111101010100000000000000000
00000101010011110000000010000001111101000000001000000000010000000000000000000000
11110011101011101111110011010111000000100001110011110100010100000000000000000000
00000001001111011111101101100101111111100000111111111100010111100000000000000000
00000000100001100000000010010110000000111000010011111111110110010000000000000000
11111001110010111111110100111010111111010010000000000001111001100000000000000000
11111010101011001111100100111100000000010100000000000000101011010000000000000000
00000001010011110000000000100000000000100111111100000000000000100000000000000000
00000001010001001111111001101001111111111100011000000000101101000000000000000000
11111101100110010000000110011010000000011011100011111100011010110000000000000000
00000010000011100000000001000110000000000100100100000000111111000000000000000000
00000001001011101111111110110100000000000101101011111010110100000000000000000000
11111111100011100000000010000011000000001001101100000000010001000000000000000000
11111110100110111111111010001110000000001111011000000000001001110000000000000000
00000001100001001111111111010111111111010100101100000000010101110000000000000000
00000010000100011111111111111110000000010100010111111110011100100000000000000000
00000001001100101111111101011110000000001110101111111110111010100000000000000000
00000001000000110000001000001010000000100000000011111110110011000000000000000000
11111111001010000000000011101011111111101001000100000000100100010000000000000000
00000011000010100000001010000001111111101100001011111111111000100000000000000000
11111110101110001111101110001111000000011100010111111111001100010000000000000000
00000011000100001111111101101101111111100001010100000010100011000000000000000000
00000000010111001111111101111101000000001010111011111111111011010000000000000000
00000000100001100000000011010011000000010000111111111111001010110000000000000000
00000000001101111111111100010010000000000100101100000001000111010000000000000000
00000001001111010000000110000011000000010101110111111110100100100000000000000000
11111110100110100000000011101001000000010011000100000001010111100000000000000000
00000001001011001111111010000011111111101110000111111111100100000000000000000000
11111110101111111111111101001100000000010101110011111111010100100000000000000000
00000000011100101111111101110101000000000101001111111111110110110000000000000000
00000000100111100000000000010000111111111110110011111110100011010000000000000000
00000001010101010000000011010100000000001010111111111111111110010000000000000000
11111111101100111111111100100010000000001111011000000000001111000000000000000000
11111111001100110000000101010010000000001100001011111111010011100000000000000000
11111110100011101111111100100011000000010010111111111111000101010000000000000000
00000001100011001111111101010001000000010000101011111111111001100000000000000000
11111111111011111111111100001101111111110101100000000000010011110000000000000000
11111111100011010000000110000100000000000011001111111111111010010000000000000000
11111110100011011111111010110110111111111001111011111111100111100000000000000000
11111111001001110000001011001000000000100011100000000000110011010000000000000000
11111111011111000000001101001101111111110110111111111110101011100000000000000000
11111101110100011111111100111010111111100001101000000001110100000000000000000000
11111110111001010000000010001111000000001100011000000000011100000000000000000000
11111011111101011111111101101011000000101010101000000001111100100000000000000000
11111111101100000000000010111110111111100101011000000001010111010000000000000000
00000000011100101111111110111001111111101101011011111111010110110000000000000000
00000000101000000000000010000110111111000100101100000001010110010000000000000000
11111111101101000000000000011111000000000010010011111101111001100000000000000000
00000000111111110000000111110110111111011000010100000001111001010000000000000000
11111011110100110000000010000111000000101001001011111111111001000000000000000000
00000001110010100000000011101010000000001111001111111110001100000000000000000000
11111101111111110000000000101011000000011000010100000000010110010000000000000000
00000011000111111111111111110010000000010010101011111111100110010000000000000000
11111111001111010000001010011001111111000111111011111111111010000000000000000000
11111111001000101111111011111000000000101011011000000001110010110000000000000000
00000000100001111111111101010000000000000011001011111111011100111111111111101101
00000000011001001111111110000011000000000101000100000000101100000000000000000000
11111111110000011111111100111111111111111101011111111111101100010000000010110100
11111111111010011111111111110001000000000101001100000000011010110000000000000000
11111110100001110000000111110011000000001100010111111110000101110000000100010101
00000001000001011111111101101011000000011000011100000000111101010000000000000000
00000001100110010000000000011000000000011001101000000010000010110000001011101010
00000001110100000000000101011111000000001011110000000001010010110000000000000000
00000001000101000000000000101011111111110110010011111110100001000000000000000000
11111101101110111111111101111100000000101111110000000000000111010000000000000000
11111111111101110000001111101010000000000101110011111111001111110000000000000000
00000011001100111111110010011110111111111011100000000011001110010000000000000000
00000000110000000000000010000101111111110101100100000000101100110000000000000000
00000000010000000000000001010101111111100011101111111100111001110000000000000000
00000000111100001111111100011001000000000010000111111111101010100000000000000000
00000000011001001111111111010010111111000000110111111111010101000000000000000000
11111111000100101111101100011110111010110101000000000000000010010000000000000000
00000001001100011111011110000011000000111011011000000001010001100000000000000000
00000001010000100000001000011100111111101000000100000010000001110000000000000000
00000001011011110000000001100011000000010001011100000010000010010000000000000000
11111011011100010000010001000110000000011010111011111111100010000000000000000000
11111001111110101111101110010010111111010001010100000010010101100000000000000000
11111101100101010000000011001010111111110100010111111111111001110000000000000000
00000000111101010000000010110111111110001111001000000001101101110000000000000000
11111100011010110000000011010111111111000001110000000011101100000000000000000000
00000000110101100000000100010100111111100100000111111101111011010000000000000000
00000001010100010000000101000011111111111010011000000000010100100000000000000000
00000000100111001111101111001100000000111000011000000000001110100000000000000000
11111111101100111111111001110101000000010001111000000000111001000000000000000000
00000001101001110000000101100111000001001000000011111110101010110000000000000000
00000000100101101111111111000101000000000010011100000010111100000000000000000000
00000000111111001111111000110000111111111010001100000000010011110000000000000000
00000010000100011111011001011011111111010101100111111110101100000000000000000000
11111111100011110000000101010001000000010010011111111110000111010000000000000000
11111111101101110000000011010100111111010010100100000000111001110000000000000000
00000011111000101111111110111111111111101100000011111010100000000000000000000000
11111111011110101111110000011010000000001010110111111110000001100000000000000000
11111101011100110000000010001000000000101001001000000000110010010000000000000000
00000010000111000000000000000110111111111110111011111111110011110000000000000000
00000000001100111111111010010010000000110010110011111010000001110000000000000000
11111110100011100000000011101100000000010110000100000000111110100000000000000000
00000000110110010000000101100110000000000001111111111111111100100000000000000000
11111110101001011111111010101010111111110100100111111111101110000000000000000000
11111111001011001111111011101101111111111110011011111110100011000000000000000000
11111110101000101111111111101010111111111000111111111111100011000000000000000000
11111111001011101111111001110100111111101110110000000001010111100000000000000000
00000000001101001111111100100010111111110100010111111111110001110000000000000000
00000000110110100000000100111001000000010011001011111110100011100000000000000000
11111110111110100000000100010110000000000000111100000000100000110000000000000000
11111111110001011111111010110101000000010010100100000000000101110000000000000000
11111110101100101111111011110110000000010110011111111110111011000000000000000000
00000001000100010000000000010101000000010111110100000001001110000000000000000000
11111111101100100000000101001101000000001111010100000001010101110000000000000000
11111111100011010000000011100101000000001000010000000000100101110000000000000000
11111111110101111111111101111000000000001110000100000000100011100000000000000000
00000000011000100000000100111100111111101000111100000000110010100000000000000000
11111111100011100000000000110010111110001011100011111101111010110000000000000000
00000000100010110000000011000111000000000100110111111111110100000000000000000000
00000010001110101111100100100101111110111001111100000000110100000000000000000000
00000001000011110000000100101010000000010111011011111111000110000000000000000000
11111110101010000000000000011110000000001011111100000001100111100000000000000000
00000000100000100000000101011100000000010000111100000011110110000000000000000000
11111110111110011111110110001100000000100100100111111101010001000000000000000000
11111110100001111111110000101001000000001110001100000000001101100000000000000000
00000000010000001111111110000010111110101100100111111101101011000000000000000000
00000001110001100000001001001100111111110011110111111110100101110000000000000000
00000000011111011111111111001010111111100001000011111111100010110000000000000000
00000001001001010000000001100100000001011000110100000010001101100000000000000000
11111100101101000000001000010001000000001100111100000000111111100000000000000000
00000001001111000000000101111010000000001100101100000000111000010000000000000000
00000000100000101111110111010001111111011000001100000010001001110000000000000000
00000010001100111111011101110101111111011010010011111111010101010000000000000000
00000000001010111111111110111100000000000100010100000000000000100000000010000001
11111111111101100000000010010011111111111000101011111111100100110000000000000000
00000000100001110000000000011000111111111011100011111111011100011111111111110100
11111111110111100000000001011110000000000111100100000000100110110000000000000000
00000010011010110000000001101101000000011101100000000001000000100000000110111011
00000001110110110000000110111001000000001011011000000001101101110000000000000000
11111111111101110000000110101111111111111101010000000001100011000000000111011101
00000001000100000000000010101011000000001010010011111111101001100000000000000000
00000000111010010000000100011111000000001110001111111111110100000000000000000000
00000000100010001111111101000100000000010001000011111111110010010000000000000000
00000000110011011111111101001111111101110000001111111101010001100000000000000000
11111010000110110000000001010000000001000011000100000000100011110000000000000000
00000000110000010000000101101001000000000111110111111111100111110000000000000000
00000001100000001111111111101101111111010111001011111101110111100000000000000000
00000000000110111111111111100010111111110001010100000000100111010000000000000000
00000000001011001111111100010110000000110110101111111111101101110000000000000000
11111111101110010000000100011111111111110100111111110010010101110000000000000000
11110110000001001111110101100100000001000110100111101111111011100000000000000000
11111111011001110000000111010010000000011110011011111111000110000000000000000000
11111111001001110000000101110010111111101000101100000000100110010000000000000000
11111101000011100000000010101001000000100000101000000000101110110000000000000000
11111011111011111111111001101111111111101111000111111111100000010000000000000000
00000000000010111111111001001111111111111101111100000001001101010000000000000000
11111111110000011111111101010000000000100010010011111111010101100000000000000000
11111110001001001111111000100100000000011000011000000000011011110000000000000000
00000000110010010000000001110010000000001001010000000000100110010000000000000000
00000001101001011111111111011110000000010000101111111110011001000000000000000000
11111110111101111111111110000001000000010110111111111111100001000000000000000000
11111111111011111111111110111111000000100001101011111111110111110000000000000000
00000000000110100000000010111111111111111111111011111111011101010000000000000000
11111111011101111111110010001100111101110010001111111001111011100000000000000000
11111110101011111111110111001011000001000011011111111111011000100000000000000000
00000001100110100000000100111101111111101110000011111110111101100000000000000000
00000000000000100000000101101010111111011111100011111101100101110000000000000000
11111111010100011111111100101111000000101000000100000000111101110000000000000000
00000000111100111111111001110001000000011010001100000001011010000000000000000000
11111111101100001111111001100100000000110110001111111110111011100000000000000000
11111111001000010000000101010001111111110010011011111111111001000000000000000000
00000001001010001111110101101110111110111110100011111010001010010000000000000000
00000000000000000000000110100001000000010101011100000001000011000000000000000000
