00000001001111110000001010001001000000000100111100000000110110001111111011110001
11111111100101111111110111111101000000001100100100000001011000101111111111110011
00000000010010001111111110110010111111111010001100000001111000011111111110001100
00000001000101110000000000110010111111101111110011111111101010010000000010010010
11111110010011110000000011101001111111011000001100000000010011010000000001111111
00000001011111101111111100100110000000000011000000000001101100110000000000001011
11111110101000011111111111111111000000000101111011111111111001100000000000111101
00000000010100101111111010111001000000000001001011111110111000111111101010110101
11111110111101111111111000010010111111101101000011111110110101000000000000000000
00000000001011011111111001100010000000001000000000000001111111010000000000000000
11111110101010110000000001110001111111100101110111111110101000000000000000000000
11111111010000110000000100110110111111101001110111111111011101100000000000000000
11111110111101111111111101110111111111110101110000000001011011010000000000000000
11111111101101010000000100010010111111101001000100000001010011000000000000000000
00000001001001000000000011000110000000011000010100000011011111010000000000000000
00000010010001011111111110000110111111010010010111111111110111000000000000000000
00000000101010101111111111011100111111101110111100000000110100000000000011011010
00000000110001001111111100011110111111111111001000000000100100010000000000000000
00000001110011111111111111001000111111110111011000000001101101111111111111001010
11111111111101110000000110010100111111111100110111111111100000000000000000000000
00000000011001100000001010101010111111111000000000000000000101000000000000000000
00000001110011100000000100100110000000011001100111111110011110100000000000000000
00000010110101100000001011111111000000000001100100000011010101100000000000000000
11111111101100100000000011101000000000100110001000000000001100010000000000000000
11111110111111011111111110010000000000001100001011111111000011100000000000000000
11111110100101110000000100111110111111101011001000000000001101100000000000000000
11111111111111111111111111110111111111111110110000000001001001110000000000000000
11111110111101101111111111110010000000000000000000000001000011110000000000000000
11111110100111000000000011000001111111101111101011111111001101000000000000000000
11111111110101010000000101100000111111111101010100000000001101100000000000000000
00000001010100101111111010000010111111111111011000000001001100010000000000000000
11111110100101000000000000110101000000010100111011111111110001100000000000000000
11111100001000000000000010011000111111111011111000000011111101000000000000000000
00000011010111100000000011101000111111111111011011111111101001110000000000000000
11111110010100100000001100011110111111111111101000000001010111100000000000000000
00000010011100111111111101011110000000000100011111111111110001000000000000000000
11111110011110000000000011001110000000111100110111111100101000110000000000000000
00000001100000100000001001011010000000000001111011111101110111000000000000000000
11111111000010101111110010011110000000110010100100000001000100000000000000000000
11111111100001110000000011001000000000010100100100000001111100100000000000000000
00000000001000110000000011010101111111111101100000000000101111001111111100011111
00000000111110001111111101100111000000001000100011111111001010110000000000000000
00000001010000010000000010011001111111101010001100000000010101000000000111100101
11111110111011011111101000111100111111000010101011111100111110010000000000000000
11110111010101110000001110110011111111100000000000000000110011000000000000000000
00000111011110111111110010010000111111100011001000000001011000110000000000000000
00001000101010101111111110000001000000001110010111111110110000010000000000000000
11110000110110100000000010000100111111110111110111111110110011110000000000000000
00000000100111010000000000100011000000111110011000000000111100000000000000000000
00000010010000101111111111111011111111110110010000000000101010100000000000000000
00000000000000111111110111010011111111110110001111111111101010010000000000000000
00000001110001011111111010110100000000011101010100000000011010000000000000000000
11111111111111111111111111101110000000000101001100000001010110110000000000000000
11111111011101000000000001001110111111101100001100000001010101110000000000000000
11111111101101011111111011110010000000000101011011111111111100010000000000000000
11111111111100011111111100111010111111111111011000000000001101010000000000000000
00000000010100100000000111101000000000010001000111111110000010010000000000000000
11111111110011110000000011101110111111111111011011111111111001110000000000000000
00000001100100010000000010111000111111100111101111111110000001010000000000000000
11111110010100001111111001011000111111110011101111111110110110000000000000000000
00000001101001100000001110001110000000000111100000000100101110000000000000000000
11111111101000001111111001010010111111111000111111111111110001000000000000000000
00000001010100010000000000011010000000001110100100000000100111010000000000000000
11111111001001000000000111111100000000000011111000000000001111000000000000000000
00000101100101011111111111000100111111111100100000000101011101110000000000000000
00000001001010100000000000011010000000001011000011111111100110110000000000000000
11111111111110000000001111011110000000101111110011111101100011110000000000000000
00000001001101010000000100110010000000001101011100000001111101110000000000000000
00000000010111011111111111010101000000001000111011111111011001011111111101010110
00000000011001110000000001110100000000000000010100000000000010100000000000000000
00000000100000110000000001010111000000000110110011111111011111110000000000100000
11111111111011011111111111001000111111111111000011111111111000100000000000000000
11111111011011100000001000011101111111110010011111111111000000110000001000000000
00000000000100011111111101101111000000010011111111111111010100000000000000000000
00000001000101100000000100001101000000000100011000000001001111000000000000111010
00000000100000100000000001001011000000001001101000000000100100010000000000000000
11111111111011110000000110011000000000101010011111111101010101010000000000000000
00000010011010101111111000011010000000011110101111111100001101000000000000000000
11111101001000000000000101001010000000010100011100000000001001000000000000000000
11111111100101011111111011001100000000011001000011111110101110110000000000000000
11111101101111000000001101100111000000110111100011111101001101010000000000000000
11111110010101111111111110111000000000000011011100000001000000000000000000000000
00000000011010100000000101101010000000001000010011111011000011010000000000000000
00000001011010010000000010110011111111100111100000000000100000110000000000000000
00000001111111010000001011110001111111010100101100000000110110000000000000000000
11111110111010101111111101111011111111011111111111111110100110110000000000000000
11111000010100101111111101000111111111110111010011111100110100100000000000000000
11111101111010001111111001000101000000100000000100000010010011110000000000000000
11111101001111000000010010001101000000001100111111111101110110010000000000000000
00000011001110101111111101111011111111100010101111111110010101000000000000000000
11111111011001010000000001000011000000010011000011111111010110110000000000000000
00000011000010011111111111001110000000011100101011111111010010010000000000000000
00000001100010110000000001101001111111101100101100000000100011010000000000000000
00000000001111001111111101011010000000010110000000000000000111010000000000000000
11111110101001111111111010101001000000000010001100000000010011100000000000000000
11111110110000110000000101001111000000010111101000000000010101100000000000000000
11111111101001100000000000100001000000001010110111111110111000010000000000000000
00000000111100001111111010010011000000010011000111111111111000100000000000000000
00000000001001111111111010110001111111100111110000000001001011000000000000000000
11111111101101010000000101110011111111110010110000000000111001010000000000000000
11111110110110001111111100111001111111110111110011111111111100000000000000000000
11111110111010000000000000000010000000010100100111111111000100010000000000000000
00000001001100111111111011001001111111111101010000000000000011010000000000000000
00000000110101000000000011101111000000000101100100000001011100000000000000000000
00000000011110010000000100100000111111101000110000000000011001100000000000000000
00000000111110001111111111000000111111101011100100000001010000010000000000000000
00000000101001101111111100001111111111111010111111111110111111010000000000000000
00000000101011011111111101101100000000010001011111111111011011010000000000000000
00000001001111110000000101000011111111111001111011111100001000110000000000000000
11111110110100010000000100110101000000010010010100000001010001000000000000000000
00000000101100000000000001010101111111111101000100000000111001110000000000000000
00000001101110000000010010001011000000001011000111111111110010000000000000000000
00000001101001001111111111000011000000110001111000000000110101100000000000000000
11111110010000100000000100010011111110110111101011111111011010010000000000000000
00000010101001101111111101101100111111100111110111111111011001010000000000000000
00000001101100011111111111001011000000010100100011111111000100100000000000000000
00000010101100110000000001000101000000011101010100000001010000100000000000000000
11111111100011001111110111011101000000001101011000000000100110000000000000000000
11111111111101010000001101000100111111101001110000000000110110010000000000000000
00000011011000010000001101001111000000100110000111111100101100010000000000000000
11111111101100000000000100010011000000011101011100000001110101010000000000000000
11111100011010111111111110101100000000111101111111111110110110100000000000000000
00000011011000010000000000010000111111101110101100000000110010010000000000000000
00000000110001100000000001100111000000000101011011111111011010000000000000000000
00000000011100101111111111110001111111110110010111111111011101110000000000111010
11111111011000110000000010000100000000000101001111111111111110110000000000000000
11111111101100100000000000100101000000001100011011111111101000101111111101101001
00000000110001101111111101101010000000001010010100000000010010110000000000000000
11111110111000000000000001001100000000100100000011111111100010101111111110011101
00000001100011111111111101000000000000001010001000000001101111000000000000000000
11111111000000010000000111101010111111111000101100000000010010111111111100111110
00000000111111001111111111010100000000011111001111111111110111100000000000000000
00000110000010010000000101011100111111100100101111110111010100010000000000000000
11111111110111011111110100101100111111110001100100000001001100110000000000000000
00000000001100100000000110111101000000010110000111111011011011010000000000000000
11111111001010110000001010010011111111000110110000000001001101100000000000000000
11111110110001001111111110101101111110001000100000000011100111000000000000000000
00000000011011011111011011001010111111100111010000000001100001000000000000000000
00000001011101010000001100010001000000101101101011111100010110010000000000000000
00000001010010001111011010110110111111001110111100000000000000010000000000000000
00000011101111100000000010001010111111010100010100000001100111010000000000000000
00000000100010110000000110111110111111111001010000000010000100000000000000000000
00000000010111110000000111011101000000000110011100000010011001000000000000000000
00000000101111000000000010011101000000001011001000000001001111100000000000000000
11111100101100101111111111100100111110011110111000000011111000110000000000000000
00000001110110000000000010101000000000010010010100000010001001100000000000000000
00000000011001101111110110110111000000101100100000000100001011110000000000000000
11111111101011101111110011011010111111110011011000000001001000100000000000000000
11111111100111100000000000011000000000010011001000000001100101110000000000000000
11111111110000111111111010100010111111110001101100000000001111110000000000000000
00000000101000100000000110111110111111111010010000000100101011000000000000000000
00000000100111010000000110110110000000001011111011111110100011110000000000000000
00000001100101011111110100111011111111110001100000000001011110110000000000000000
11111000101111100000000011000010111111111011100100000000101011010000000000000000
11111110000110000000001010000110000000100010001000000000100010010000000000000000
11111101000111010000000111000110000000000101001111111101110000110000000000000000
11111100100011110000001010101011000000000100000000000001011001100000000000000000
11111111001001110000000010000001111111111011010000000001110011110000000000000000
11111010101101001111111100111010000000100010000100000001000110000000000000000000
11111111001110001111111101101100000000000100111111111011101110100000000000000000
11111111010001001111110111011010111111110111011100000001000000000000000000000000
00000001100100000000001111000110111111100011110100000001000000010000000000000000
00000011010101111111111011011100000000010111000111111111010111110000000000000000
00000000101011001111111101100011111111010010101000000000011100110000000000000000
00000001000100101111111011010000000000011000001000000000011010110000000000000000
00000000010101111111111111010100000000011000010100000000110011010000000000000000
11111111010110100000000100011000111111110011010011111111011100000000000000000000
11111111010011101111111011001101000000001101010100000001100010010000000000000000
00000001100001000000000000101001111111110010101011111111100011000000000000000000
00000000100100011111111010101110111111100111011000000000110110110000000000000000
00000000011000111111111010011101111111110001010000000000001011000000000000000000
11111110011111111111111111110001111111111010100100000000110001100000000000000000
11111111111101011111111100011011000000001110110100000000010000110000000000000000
00000000100101100000000100100110000000001001100100000000000100010000000000000000
11111110100001000000000000000101000000001001001011111110111010000000000000000000
00000000011010011111111101101101111111101011101000000000001010010000000000000000
00000001000000010000000000000000000000000001101011111111100001010000000000000000
11111110101111011111111010010010000000001011010100000001011101010000000000000000
11111111011001001111111110100010111111111111011011111111110111110000000000000000
11111111001011110000000110000011000000010000011011111111100000010000000000000000
00000000010010000000000110001000000000100111100111111110101010110000000000000000
00000011001011010000000011111011000000010010110100000000010101000000000000000000
00000000100010000000000011011100111111011100110011111111110011100000000000000000
00000000110011000000001000101001000000000110110100000000100001010000000000000000
00000000101100010000000101010110111111100110000011111110100100000000000000000000
00000001010110000000000011100101000000000101100111111101011001010000000000000000
00000010001001000000000010001001111111010010001100000010111101010000000000000000
11111110101100001111111011000000000000011000010011111110111101010000000000000000
11111101111110101111111110101101000000011100111011111101011011100000000000000000
11111111100011001111111000101001111111111111011000000000010010010000000000000000
00000001100100111111110110011011111111101011001100000000011010010000000000000000
00000010110011111111110110100000000000101111010000000011011101110000000000000000
00000001000001100000001000010001000000001110110111111110101011000000000000000000
00000010101101011111111111000000000000001100011111111101110101010000000000000000
11111101100010001111111110111101000000000001001000000011111001110000000000000000
11111111000001011111111100000000000000010011101111111110111001110000000000000000
11111111111011000000000010110110111111110110111000000000010000000000000010111001
00000000100001110000000000110101000000000101011000000000010001110000000000000000
00000000010010110000000010001000111111111010001100000000011100111111111110100001
00000000101011111111111111010100000000000011011011111111011100100000000000000000
00000000010010101111111011011110000000100000010000000000111110001111111111110010
00000001010011110000000001001101111111110110100000000001001011100000000000000000
11111111000011100000001000010000111110111100101100000001111000101111111101001100
00000001011000101111111001100111000000010001100111111101100010010000000000000000
00000000111011111111111110111111111111101011010000000010101101110000000000000000
11110110010100100000000011001101000000100111100111111101100101000000000000000000
11111111100001000000001101010111111111110010001011111110100010010000000000000000
11110111101000011111110111011010000001010011001000000001001101000000000000000000
11111101101000010000001111011001111111111111101011111111101100100000000000000000
00000000011100100000000110111111000000100110101111111011000000000000000000000000
00000001110110011111111011001000000000001110010111111111011000110000000000000000
11111110010010001111010011000010111111111101010000000010011100100000000000000000
00000000010000101111111101101001000000001011010100000001001100000000000000000000
11111111001001010000000111101001000000001101110011101100100111000000000000000000
00000010010111110000000001110111111111111100011111111110000110100000000000000000
00000000101000100000000010101000000000100010011100000010111101100000000000000000
11111110111011110000010001000011000000000110110011111110011101010000000000000000
00000001110111000000000001111111111110101000000100000010111110110000000000000000
00000010100011100000000001001000111111011011111011111110000111100000000000000000
00000011001000000000001001101110111111111101000011111101111110000000000000000000
11111111001101000000000110011101111111111011101111111110111101100000000000000000
11111110110000001111111101000001111111011100100100000000111001100000000000000000
11111110011111001111111101010000000000010010110000000001010101000000000000000000
11111100001000001111111010100101111111101100101100000011110010110000000000000000
11111111110000111111111000101001000000000010011100000001010010110000000000000000
11111101001111010000000001110010111111001011010111111000101111000000000000000000
11111111100000001111000111110000111111011100010111110000111111100000000000000000
11111011011010101111110000111010111111111101001011111111011100010000000000000000
11111111011011010000001001010000000000100111011011111101000011100000000000000000
11111010001011010000000000010001000000000010010111111101111000110000000000000000
00000010100011101111111110101000111111111101100011111110001111110000000000000000
11111111111000111111110100011000000000110111000000000001101000000000000000000000
11111100110101001111111101100111111111110110010011111111110110010000000000000000
00000000111000101111111101101110111110010000110100000000100001010000000000000000
00000001000000010000000110111001000000011001100011111111001100100000000000000000
11111110111101111111111111100010111111100110011011111101101100000000000000000000
00000000000010010000000001100000000000001110001111111111101100110000000000000000
00000001000111101111111010011011111111111100010111111110111111010000000000000000
11111111010010001111111100000000111111100111110011111110100000110000000000000000
00000001000001101111111100001001000000011000011000000000110101100000000000000000
00000000001000011111111010111101000000001000011100000001011101110000000000000000
00000001001010001111111101001100111111111011001000000000011110010000000000000000
00000000100000010000000100011100000000001110000111111111101110010000000000000000
00000000100010001111111011000110000000010000001100000000100100000000000000000000
11111111110100010000000001010011000000010111000000000001000010110000000000000000
00000000001101000000000010100100111111111011111111111111100011100000000000000000
00000000000100011111111110000001000000010101010100000000111000110000000000000000
00000001010011111111111110111010000000010001110111111111011010000000000000000000
11111111111001110000000001101001000000000000111111111111001110100000000000000000
11111111111111111111111010110110000000001000110100000001000000110000000000000000
00000001011101110000000100001010000000001110110000000000101000000000000000000000
00000001001001101111111101000011111111110100011011111111010111000000000000000000
00000001000000100000010000101011000000010111001000000000010100000000000000000000
00000010000111101111111010111000111111101101100000000000010000100000000000000000
00000010001000100000001011000011111111000101011000000000101001010000000000000000
00000001010011010000000000111111111111100000010100000010011011010000000000000000
00000001000101000000010001000000111111000000000011111110110101000000000000000000
00000000100010011111110100101010111111111101010000000011000001000000000000000000
00000010101101101111111011011101000000010010001000000001111110010000000000000000
11111011110110001111111100000010111111111111110011111101011100100000000000000000
00000010100011101111111110001011000000000011000011111101010100100000000000000000
11110111010010110000001001001001000000010010011000000001001111100000000000000000
11111100001111111111111100010101000000100101111100000001110011100000000000000000
11111100011000010000000000100100000001011000101011111111101011000000000000000000
00000000010001101111111111000011000000100000100100000000001101010000000000000000
00000000100101011111111011011000111110110110111011111110101101010000000000000000
00000000000010000000000011100111111111110110001000000000110000100000000000000000
00000001000101010000000100100111000000010111010011111110100101100000000000000000
11111111111111000000000010110100111111111010110111111111110000101111111110101111
00000000010101001111111111001010111111110110000011111111010000100000000000000000
11111111110101101111111111001010000000000101101011111111111110111111111110001101
11111111101011011111111110010110000000000001011111111111011011100000000000000000
00000010000000011111110111100101111111110011101000000010011000101111111001111010
11111101110010000000000011111011111111101101111011111111111110100000000000000000
00000001011100010000000001100111000000010111100000000000111000110000001001111100
00000001011001110000000000110001000000000111100000000000001001100000000000000000
00000010001000111111110110100000111111101101011100000010110100110000000000000000
11111011110000110000001011110100111111000001110111111110010010010000000000000000
00000000101101110000000100110100000000000100010000000000001110000000000000000000
11111101100100000000001011100011111111000001111011110100000010000000000000000000
11111100110000001111111001010100111111000010000000000000011000000000000000000000
11111110101100111111110001010110000000011000001011111111110000100000000000000000
11110101110100001111110101100011000000010011100011111100010001010000000000000000
00000001110111001111111100001101000000010000101000000001000011000000000000000000
11111111110100011111111000001100000000001110001011111101000110000000000000000000
11111111011111100000000000001110111111111101100000000000001111100000000000000000
11111101110110011111101000111010111111001011111011111101110110110000000000000000
00000001001010110000000100100001111111111001010111111111010010000000000000000000
11111100010111000000000111011011111110110011100000000000101110110000000000000000
00000000011111001111101111010110000000000011010111111100100110000000000000000000
00000001111100010000000011111110111111111110000000000011001001100000000000000000
00000001001111001111110000000011000000011111011111111101011000110000000000000000
11111110011101010000000101010101111111110111000011111110100000000000000000000000
11111111010110111111100011100101000000001000001011110101010101110000000000000000
11111101100100100000000100101101000000010100101011110110111011010000000000000000
11111110010101110000001010111001111101111111110011111101001111100000000000000000
00000011010101011111100001011100111111111000100000000001011010100000000000000000
00000000011110001111110100100100111110011101000000000010011011110000000000000000
00000001111001100000000001111011111111110011110000000011100010110000000000000000
11111111100011001111110101001100000000001011011100000000111110110000000000000000
00000010111010010000000100010010111111001001010100000101100011010000000000000000
11111111110001011111101101011010000000011000011111111100111100110000000000000000
00000000000010000000000001100110000000000111100111111111010101010000000000000000
00000001110000011111010110000000111111101110111100000011011101000000000000000000
11111110100101000000000111111000000000100001100011111101101111010000000000000000
11111101111011000000000010100000000000000111101011111110101011010000000000000000
00000011111111010000000010001101111111111111001011110111010000110000000000000000
11111111011000111110111010011010111111101010110011111110010101110000000000000000
