00000000100111100000001011101101111111101010110100000000000100000000001010000001
11111111001011000000000010101110000000100110001111111110100101110000000011100111
00000000011100101111111011111011111111110101101011111111100001000000000000101111
11111111110010110000000000111111111111101100100111111111000101011111111000111111
11111101110100111111111110100001111111110000000100000000111001110000000101100100
11111111110010010000000100101111000000101000101111111110100011010000000110111010
00000000011011010000000000011010111111111010011100000000111111000000000001101010
11111111011000111111111101101000111111111100001100000000111001000000010001110100
00000000111101111111111001111010111111110100010011111110001101000000000000000000
00000000111000011111111100101101000000011110010000000001101010010000000000000000
00000000000101100000000110100011111111110001001011111110011010000000000000000000
00000001100011100000000101110100000000000111110100000000011011010000000000000000
00000001111111010000001001100000000000100011001100000011000111010000000000000000
11111110101000111111111011110111000000000000001100000000011110100000000000000000
00000010011001010000000011010100000000000101001100000011010100010000000000000000
00000001011010101111111011011110111111100011111011111110100011000000000000000000
11111111110101111111111111100001111111110110001100000000100100111111111111010001
11111111100011010000000000111100111111111100101000000001000001100000000000000000
11111110100111100000000100111111111100111011000111111111000101100000000100110010
11110010101101100000000010001100000000000101110111110101000111110000000000000000
11111101111101010000001100110000111111111100000100000011101001110000000000000000
00000000010100111111111100001110000000001001001100000000010110110000000000000000
11111101001001100000000001100101000000110001011100000001011101110000000000000000
00000001001100000000001100011011111110100101111000000001101011010000000000000000
11111111001001101111111110010100000000000111100011111111100111110000000000000000
11111111001011101111111111101000000000000111100000000001001000010000000000000000
11111111101000101111111111110000000000001110000111111111111101000000000000000000
00000001000011110000000100001011111111110000101111111110100011110000000000000000
11111111110110000000000001100101111111101010110011111111010011100000000000000000
11111110100000101111111101100000000000001001110100000000101100100000000000000000
11111111001000000000000101001010000000010011011111111111111011100000000000000000
00000000101000100000000000100000111111110001001111111110111100010000000000000000
11111111100101101111111100000101111111111110001000000000110111100000000000000000
00000000001011010000000001110011000000001011011011111110100001100000000000000000
11111111110101110000000011000000000000000001110111111110101111000000000000000000
11111111010000001111111100000100000000001011011011111110010101110000000000000000
11111111000001100000000001100111111111100000001100000000110010000000000000000000
11111101111000110000000101100101000000000010101011111110100111110000000000000000
11111110100010101111111100001011111111110011010111111110110010110000000000000000
00000000000100101111111010101111111111101011100011111110010000100000000000000000
11111111000110010000000001111101000000000110011000000001000100011111111110001000
11111111110001001111111101110110000000001110101000000001000100110000000000000000
11111111011111101111111111111111000000001101111100000000011101110000000100011100
11111111011000101111111101111101000000000100010000000000001000000000000000000000
11111010011011001111110011110110111111110111001000000001001110010000000000000000
11111111111011010000010000001000111111000011010000000010011010000000000000000000
11111010001011100000000001010000111111111011011000000000010000110000000000000000
11110011101000100000000100101010111100000110010100000001001111000000000000000000
11111101100100011111110100100001000000000100001100000000011101110000000000000000
11111110011000010000001000010100000000010101111000000001101111010000000000000000
00000010101001010000000011011010000000011101100111111101111111100000000000000000
11111111111110110000000011010110000000000010011111111110101101100000000000000000
00000001010100111111111000101000111111100011100000000001101001100000000000000000
11111110111111101111111100110000000000010110001011111110011000100000000000000000
11111110001100010000000010000100111111100111101000000000010101010000000000000000
00000001101000111111111101100011000000001111011111111110000110100000000000000000
11111111100011001111111011010110111111110110101100000001101100010000000000000000
00000000010001011111111110000010111111111101000100000000111101010000000000000000
11111110101010000000000111000100111111110000111011111111110101110000000000000000
00000001000001110000000011010101111111111010100011111110101001000000000000000000
00000001100000010000000111100110111111110001000000000010110001010000000000000000
00000001111110101111110111101010111111110011110011111111101101000000000000000000
11110111101000000000000011001000000000000101111000000000111101000000000000000000
11111110101001001111111100011010000000100011100011111110100111010000000000000000
00000010010100111111111100101010000000010011111100000001001101000000000000000000
11111101011010101111111110010001111110111100000111111111001100100000000000000000
11111111111101110000001000000101000000010110110100000010111100110000000000000000
00000000110100001111111101001010000000101001111100000011010100010000000000000000
00000000010011111111111111001000000000001010001011111111110100000000000001100110
00000000011110001111111111111001111111111001010000000000011111100000000000000000
11111111110011000000000000011011111111111110011011111111111101111111111110110110
11111111100001000000000001011100000000000100111000000000001011100000000000000000
00000010000000001111111011100001000000000100110100000001000110001111111101100111
11111111101010000000000110111110111111110100011100000000110011110000000000000000
00000011110111110000001100101001000000100010010011111111100011110000000100101001
00000000111011100000000111000100000000011111110000000011001011100000000000000000
00000000011010000000001110010000111101100111110100000000010010010000000000000000
00000011010100011111111111100001000000000111011100000001100011010000000000000000
00000001001101111111111101001100000000101000100000000001101110100000000000000000
11111100000001010000000100111011000000010110001100000001101011010000000000000000
11111111111001001111111100011010000000010100011100000000010010100000000000000000
11111111111001010000000110101101000000010111011100000000110000100000000000000000
00000001101110011111110000100110111110001101011111111100111101010000000000000000
11111010111010010000000111011101000000001100101100000010010100000000000000000000
00000000010000000000000000100111111111100011100100000000110111010000000000000000
00000001111010010000000011010110000000011110001000000000010000010000000000000000
00000010100101111111111001011101111111110110011000000010001000110000000000000000
11111101001101111111111111111100000000001000100011111000101001010000000000000000
11111111000110000000000001000100000000011111110100000000000001110000000000000000
11111111001100100000000010011000000000000000000011111110011010100000000000000000
00000000111111101111110111100111000000000101100111111110011001110000000000000000
11111100100111000000000001101000000000001001101100000000100101110000000000000000
11111111000110000000000001110001000000001100011000000000001100100000000000000000
11111111011100001111111100111001111111111000100000000001000001110000000000000000
00000000111010101111111100010000111111111011111100000000100010010000000000000000
11111110110100000000000001111100000000001000111111111111110000000000000000000000
00000001001010110000000010001110111111101011010011111111001011010000000000000000
00000001000100010000000010101110000000000101011011111111110000010000000000000000
11111110110001100000000011100100000000010000110000000000011101010000000000000000
11111111011101110000000010101110111111110101101000000000111001000000000000000000
11111110110100100000000110001001000000000111001111111110111111100000000000000000
11111110110011001111111001111001000000010001110111111111011010100000000000000000
00000000011101111111111110100001111111101001011100000000101010110000000000000000
00000000100100001111111011010011111111111100001011111111010000100000000000000000
11111110100001111111111011001010000000010110000100000000101010000000000000000000
11111110101001111111111101000100000000000000110111111111000001000000000000000000
11111110111100100000000011000001111111101100110100000000100011010000000000000000
00000000000100101111111100000000111111110111000100000000000010100000000000000000
00000001000000011111111100110110111111111110101011111110010001110000000000000000
11111101001111101111111010011101000000101001010011111111110001000000000000000000
11111111000010110000001001010111111111000111010000000001000000010000000000000000
00000010110010110000000110100110111111010100111111111011100000110000000000000000
11111111101000100000000010001101111110010111100100000001101111110000000000000000
11111100010010000000000000011010000000110100101111111111010000110000000000000000
11111110101110100000000010111111111111010100100000000001011010010000000000000000
11111101000111101111111001111111000000000110100100000010011110000000000000000000
11111101001101111111111100000010000000001010011100000010110101010000000000000000
00000000101001100000000111011001000000000111100100000000010100100000000000000000
00000001101000010000001001101100111111101110001100000001000010100000000000000000
11111111111100100000000100011011111111011001010011111110100001000000000000000000
11111111100001000000000011100110000001011100111000000000010101110000000000000000
11111011011111100000001001011011111111100101100000000001000110110000000000000000
11111111010011000000000110011011000000000011011111111110011111000000000000000000
11111110100001011111111100010101111111111111101111111111011101110000000000000000
00000000011101101111111101101000000000000000010011111111010010001111111101001000
11111111100001000000000010001010000000001001110000000000000010100000000000000000
00000000100001000000000001101000111111110100100000000000010101100000000000101010
11111111101101110000000001111110111111111111000100000000011010110000000000000000
00000000110110001111111010101111111111110101011011111111000100010000001011110011
00000001000101011111111001000101111111100011100011111111001111100000000000000000
11111111110001110000001000011010111111101111100111111111110001100000000100111001
11111110000010101111111110111110000000011101111011111111100101010000000000000000
11111100000101101111111101000100000000001011000100000000000000100000000000000000
00000000000101000000000000001000000000011000001000000010111110100000000000000000
00000110011100001111111000000011111110110010010111111111111111110000000000000000
00000000001100000000000011110111111111110000010011111001110100100000000000000000
00000000001011001111110000101001000000000010010111111111001101110000000000000000
00000000011010101111111010011101000000000001001111111111010101000000000000000000
00000011011100011110100111011010000000010010100011110000001100010000000000000000
00000000010101001111110011111111111111110111001000000001000100110000000000000000
00000100101111101111101000101100000000001100101000000011001100100000000000000000
00000000010100010000001000111001000000011110010111111001100101010000000000000000
11111100111010101111101100101000111110000010000000001001111101100000000000000000
11111011110011100000001000101001111110111000111100000010010100010000000000000000
11110100001001110000001101011000000000100100010111110101111011000000000000000000
11111111000100100000000010100010111111010101111011111101000111000000000000000000
11111111100100011110111110111010111111111001011111110110110110000000000000000000
11111111110000011111011011100111111111101000000100000011000000000000000000000000
11111101101100010000000010001011111111111101100111111111001010100000000000000000
11111110101111101111111110111011111111111111110000000000000111100000000000000000
11111111110000000000001001110011111111111111111111111111100101000000000000000000
11111111010011101111111011000110111111111000101011111111001110010000000000000000
11111110011111110000000101001110111111111001100111111110110110110000000000000000
00000000101110111111110110010111000000101010001111111111111010100000000000000000
00000001100101101111111111010000000000100101111111111100101010010000000000000000
00000001101011011111101000111000111111101010111100000000111110100000000000000000
00000010001111100000000001001101111111101100101100000000110101110000000000000000
11111111001011010000000110010111111111111111101100000000001001100000000000000000
00000001010001010000000010110101111111111101110011111111111011100000000000000000
00000001010110101111110001001001111111111100111000000001010001100000000000000000
00000001001100011111111010110101000000010011100100000001111101110000000000000000
11111110010101101111111001000111000000010100111111111111111101000000000000000000
00000010101101100000001000101100111111011100011000000000101111110000000000000000
00000010111110011111111111110101111111100110111011111111011110010000000000000000
00000001011100111111111101110110000000001000100100000000011110000000000000000000
00000001010010111111111010100101111111111101101000000000010001010000000000000000
11111110111011011111111101101111000000000100110111111110100110100000000000000000
11111111100000011111111111001010111111111100100100000000110100000000000000000000
00000000110011110000000011101011111111111011110011111111010110110000000000000000
11111111000010000000000011111011000000010110100011111111001110010000000000000000
00000000100100111111111010001011000000010100110000000000110010010000000000000000
00000000000011001111111001111001000000001000100111111110101011100000000000000000
11111111000101100000000010100010000000001110110111111111100100110000000000000000
11111111100000111111111110101101000000001111011011111111011010010000000000000000
00000000010111111111111100110000111111111101101011111111101010010000000000000000
00000001000001011111111110000000111111101011000100000001011011110000000000000000
11111111110101000000000010011011000000000100000011111111100001010000000000000000
11111110101010111111111110110110000000001010000111111110111000010000000000000000
11111110100011011111111011110011111111111100011100000001010000100000000000000000
11111111101111100000000100001111000000010101000111111111111010100000000000000000
11111111010010010000001111000100111111011110101011111101110111100000000000000000
00000010100000000000000100011001111111101110010000000000101000100000000000000000
00000000101000001111110100010100111111101111111000000000010110010000000000000000
11111111110010110000001111100111000000000000010100000000110100100000000000000000
00000000101000010000000011111000000000000100010111111111000111000000000000000000
11111111011000010000000001110111111111100011110100000001000111100000000000000000
00000001100111011111111000011001111111011001010000000011101001010000000000000000
11111111001101000000000100100011111111111001110100000001111101110000000000000000
11111100011010101111111101111011000000000000011011111100110110000000000000000000
11111000101000011111110010011011000000001110010011110111101010010000000000000000
11111111010101000000000001110111111110000011011111111101100011000000000000000000
11110111101001001111111111111101000000000101111011110100011110100000000000000000
11111111101101001111111110001100000000000111100011111111000110100000000000000000
00000011001011101111101111110101000000101100110111111100000111110000000000000000
00000000101100000000000101101001111111010111010000000000100100100000000000000000
00000010011101110000000000100011111111001110110011111110001110000000000000000000
00000000010000001111111110011100000000001010000011111111011010011111111110000110
11111111110000101111111111010100111111110101100000000000011100010000000000000000
00000000010100100000000000110000111111110011011111111111111000101111111111111010
00000000101100101111111101110101000000001001010011111111011011110000000000000000
00000000011101000000001001010010111111111101001000000000100000000000000011011011
00000000011101110000000010010100000000011101011111111111111100000000000000000000
00000001011001110000000101010011000000011001110000000011000001000000000111010010
00000000011101010000000010100111000000001100011000000000000011010000000000000000
11111111010010101111111000100100111111011011100011111101101001110000000000000000
00000100110110110000000101111010111111011001010111111111011011000000000000000000
11111101010001001111111100101111000000001000001111111111000011100000000000000000
00000001111000011111111100001001111111100010001111111111101011110000000000000000
00000000100001111111110001101111000000011001111111111101001110010000000000000000
11111101111001000000000111001000111110111001000000000001000111110000000000000000
11111110110110101111101000110010111111101010011100000000111001110000000000000000
11111011110011111111111101100101111110101001000100000011011101000000000000000000
00000010001001111111111100110000000000011001110111111101011101110000000000000000
11110011011111001111111101011001000000001000110111111100011001110000000000000000
11111111110000001111111010001000111111110001000100000001000100010000000000000000
11110010011100100000000010111100000000100011101111110100111100010000000000000000
11111110100111011110010000110011000000101100001011111100001101010000000000000000
00000000110001010000000100111100000000111011110111111100110001010000000000000000
11111100110111011111111011011010111110110011111000000010101010000000000000000000
11111101001001011111111010110100111111001001011000000100100110000000000000000000
11111101110011010000001100001000111111101110111111111111010100110000000000000000
00000000111010001111110000001011000000010011010111110101110111000000000000000000
00000001011101101111110111000010111111100000010111111111100101010000000000000000
11111110110100010000000111000010111111011100001111111010000111010000000000000000
11111111110110101111111110010000111111110110111011111111110011100000000000000000
11111110000011110000000010001010111111110100011000000001110000000000000000000000
00000000010100001111111110101101000000100000010011111111111111100000000000000000
00000001001011000000000100000100111111111111110000000011001000100000000000000000
00000000101111100000000100111011000000000011011000000000011101000000000000000000
11111001111100001111111101100100111111111100111011111110111011110000000000000000
00000000001011101111111101011011000000001011101011111111010001100000000000000000
00000000101011110000000001110000111111110000110100000000100110000000000000000000
11111110110110111111111101100011111110100010101100000011000100010000000000000000
00000000001001101111111111111100111111111111111000000010011110100000000000000000
00000001010011101111111011011011111111111110110111111110110111000000000000000000
00000101000110100000000110101000000000010100100100000000010010100000000000000000
11111111011110111111111111010010000000010000111111111110100110000000000000000000
00000000100001010000000000111000111111101101110100000000111000100000000000000000
00000001000100101111111110000000000000000010101111111110100011000000000000000000
00000000111001111111111110111001000000000101100011111111110110100000000000000000
00000000010111101111111101011101111111110110011111111111010010100000000000000000
11111110100001100000000010000110000000000110000100000001000101110000000000000000
00000001011111011111111010101110000000000110000111111111010110000000000000000000
00000001011000001111111010000111111111111010101111111111100100100000000000000000
11111111011000011111111111010000111111101110100111111111011011110000000000000000
11111110011101011111111100010000111111111011000000000000010001010000000000000000
00000001011010111111111110110011111111101001101111111110101011110000000000000000
00000000011101011111111011101011000000001000110111111111111101000000000000000000
00000000000111001111111101110100000000001110101111111110111011100000000000000000
11111111001111110000000100101011000000010010110100000000111011010000000000000000
00000000110000100000000010011101000000010010111011111111010010110000000000000000
00000000010010010000000001001000000000010111001100000000110001100000000000000000
11111101011010110000000110010110000000011010000000000010101011010000000000000000
11111101001111101111111101101100000000000010101111111100110000010000000000000000
11111110110001011111111110010110000000000011010111111101110111010000000000000000
11111111111110001111110110010000000000101010010000000000001000110000000000000000
00000100110000110000001011000010000000001100101011111110000101100000000000000000
00000000100010101111100010001101000000010000011011111111010101010000000000000000
00000010001100011111111100111101111111010011000100000010111011100000000000000000
00000000100011011111111110111011000000000010010100000010111011110000000000000000
00000001111001001111110100001111000000100111110011111100010100010000000000000000
11111110101011000000000000111110000000001011100011111101000110010000000000000000
11111111010100110000010000001110000000100000101100000001100011000000000000000000
11111100000011100000000001000011000000011110100000000000111000010000000000000000
00000000011011111111110101001100000000100000011000000000100101110000000000000000
11111111011001101111111111100000111101110100001100000011101001000000000000000000
11111100010101010000000001001000111111100100100000000000001001000000000000000000
00000011000110111111111000001011000000011110100011111110101101110000000000000000
11111111111001010000000001101100111111110110110100000000100110101111111110101001
11111111010101110000000010100110111111110111011011111111011010000000000000000000
00000000010001001111111111001001000000000001100100000000101001111111111101110011
00000000100010101111111101010011111111110101010011111111111001100000000000000000
00000010001100001111111001110011111111110111011100000010011010111111111001100101
11111110101111000000001010001100111111100001010111111111100111000000000000000000
11111011001010011111111100011101000001010011111011111111111101101111111111110101
00000000110000000000001000100111000000000011000100000100001110100000000000000000
00000000011000001111110011001110111111111101001100000000011010000000000000000000
11111111011001000000001011101010111110100000101111110100001110000000000000000000
11111110100100001111100011011010000000100101001000000001010110000000000000000000
11111100110111010000001110001011111111001011111000000001100010000000000000000000
11111101010101011111101111010000111110111000001111111110001011100000000000000000
11111101011111100000000011111101111111101110011100000000011111100000000000000000
00000010000110111111111000000101111111001101001100000011101111100000000000000000
11111101111011010000000111101001111111010100110011111100010010010000000000000000
11110100100101111111011010000100000000010110100011111101111111000000000000000000
11111111111001010000001110010000111111111101010000000001000001110000000000000000
11111111100110100000000011011000111110001100001011111010001101000000000000000000
11111011101001110000001011000111111111110000001011111101001101100000000000000000
00000010010101010000000100001100000000100100110111111111101110000000000000000000
11111100110101111111110011000000000000001011000000000000100000010000000000000000
00000001111010011111111110011111000000011001101100000010011011110000000000000000
11111100101010100000001011001000111111001111000111111100111010100000000000000000
00000010010001000000000110011101111111110010101111111111000100100000000000000000
11111111010101101111010110011100111111010000011000000010100111100000000000000000
11111110111111111111111111001111111111111110111000000000011001110000000000000000
11111101110100000000001100100110111111101010010100000000111011000000000000000000
00000000101100110000000111111100111101101001111100000001000110110000000000000000
11111111101101111111110000101000000000001101000111111100010001010000000000000000
11111110101010111111101111011010111111001001001011111111011111100000000000000000
11111110101000010000001001100001111111010000001000000010110011110000000000000000
11111111100111101111110111000011111110101011101000000010101000110000000000000000
11111010110011111111101011000111000000001011110000000000101000100000000000000000
11111111101101001111010101111001000000010111111011111111110110100000000000000000
11111010010001000000001010011100111111010100001000000001000100110000000000000000
11111101011111101111110110011100111111011001110000000000111010110000000000000000
11111111000101001111110110100011111111100111110000000000101100100000000000000000
11111110100111101111101011111101000000001011110011111111001101110000000000000000
11111111110001010000001000101011111111100011000011111110100010110000000000000000
