00000000101111000000100010101100111111100000010111111111111111010000000001101001
11111111011011001111111101111111000000000100000111111111000101100000000001111111
11111110100101001111111111110101111111111111100011111111000101101111111111111011
00001001100100100000000000001110000000000000111000000001100000111111111001000011
11111111100010010000000011010000111111111000111111111111101000101111111111111000
11111111100001011111111111111101111111111001011111111111100101001111110010010110
00000000001011110000000111011101000000000011100000000000000011000000000110101011
00000000000010110000000001111000000000001010000100000010111111100000001001011001
00000000000001110000000000001000000000000010001100000000011001100000000000000000
00000000010100000000000001100011111111111101001100000001101101010000000000000000
11111110010001010000000100011000000000001010010000000001110110100000000000000000
00000000000010000000000000110010000000001001001000000001101000010000000000000000
00000010110111110000000100110010000000000000001011111111111010000000000000000000
11111111011110111111111111101011111111111010100011111110100000100000000000000000
11111111100110101111111010001100111111110110000100000000111111110000000000000000
00000000010000011111110010110000111111111001011100000000100010010000000000000000
11111111110111110000000011111110000000001110100100000000010001001111111101001101
00000000010110110000000001111101000000000001101011111111101011110000000000000000
00000001001010010000001001000101111111110100100100000001101100110000001000000000
00000000111001000000000111101000000000001010011100000000101100110000000000000000
11111111011001111111111001001110000000011101000011111111000111100000000000000000
00000100010000110000001010101000111111010000010100000100010111100000000000000000
11111111100101000000000011100100000000010011000011111111010100000000000000000000
11111111010110101111111101110011000000100100100111111100111001100000000000000000
00000000001101001111111111001110000000010111010011111111110011010000000000000000
00000001010011101111111010101000111111110101111000000001001011100000000000000000
00000000101111010000000011110011111111101010000000000001001010100000000000000000
00000001011011101111111101100011000000010001111000000001011110000000000000000000
11111110100101111111111101100100000000000100001011111111010111010000000000000000
00000001011110011111111101111010111111101100000111111111001111110000000000000000
00000001100010101111111011111000111111111011111100000001000110000000000000000000
11111111011010000000000001001111111111111001110000000000000100100000000000000000
11111111011110010000001001000010000000001010000111111101101000010000000000000000
00000000111001000000000011011101000000011001110000000010100110010000000000000000
00000000111001100000001010111110000000101100000111111110010000100000000000000000
11111110101110000000000111101100111111110101100011111111010011110000000000000000
11111100011111010000000100000101111111100010111100000000101010100000000000000000
00000001100010101111111110011001111111101100100111111110111000100000000000000000
11111111000000100000000000101110111111101000011111111111001001000000000000000000
11111110011101101111111101001101111111111110001011111111111000110000000000000000
11111111111100000000000100001010111111110011101100000000111100000000000001100001
00000000111111110000000001101110000000000010000111111111010001110000000000000000
00000000110110000000000011010100111111100100101100000001001001110000001010011111
11111110101100100000000011001010000000010001001111111101110110100000000000000000
11111110111100101111101110000000111111101110100100000010100000000000000000000000
11111111001010000000000111000011000000010101010000000010001010010000000000000000
11111101011111001111111010110010000000010101100000000010000101010000000000000000
00000011111010100000000001000101000000000010110000000000110110010000000000000000
00000001000000001111111110011101111111110010110111111101101101100000000000000000
00000011000100100000001101100101111111000101010100000001101110110000000000000000
11111100101111110000000111100110000000001101001011111111111111110000000000000000
00000000001111010000000000101111000000000111110111111110110010010000000000000000
11111111010101110000000001010100000000000010010000000001100010010000000000000000
00000001100110100000000111100101000000011110101100000000010111000000000000000000
11111110100010010000000100100101000000011001111000000000101100000000000000000000
11111110010010010000000100111100000000001110000011111110100001000000000000000000
00000000010010110000000011000100111111110110101100000001100111110000000000000000
11111110111101100000000001110001111111101001101100000001001100110000000000000000
11111110010000001111111110010000000000000100010111111111101011110000000000000000
11111110101100100000000000000001111111111100001011111111010100110000000000000000
00000000100001110000000101100100000000000110100111111110000010110000000000000000
11111111011000011111111111100100000000001011110000000000001101000000000000000000
11111111000001101111111100000010111111101101000111111110100001110000000000000000
11111111010001101111111000000001111111111100000100000000001101110000000000000000
00000000111100110000010000100111000000010111000111111110100000100000000000000000
00000000110101110000000101001010111111100001010100000001000011000000000000000000
11111111000110011111111011100100000000010101111000000001111111010000000000000000
00000000001111100000000110001101000001101010001000000001011110100000000000000000
00000000011011101111111110100111000000000111010000000000101110111111111110101111
11111111101000011111111110000001000000001011100100000000011111110000000000000000
11111111011000101111111101110011111111111101011011111111101011001111111111100100
00000000100001111111111111010100000000001000000011111111100010000000000000000000
00000000100010011111111110001100000000000001010011111111010110011111111101111110
00000000110011011111111111100011000000001001101000000000101011110000000000000000
11111110010010110000000010000011000000001110111111111110000100010000000011011001
00000001000110101111111010111101111111111110011000000000101111110000000000000000
00000011110011100000000010101101111111100011100100000000100101000000000000000000
11111001000011000000000110001111000000011101110011111101000000010000000000000000
00000011101011101111111100111100111111101111111000000001011100000000000000000000
00000000010111100000000111011001111111111100110000000000011100100000000000000000
11111111001010011111111100000110000000000010100100000000001101110000000000000000
00000000010110111111111111001111111111110101111000000100110001000000000000000000
00000010000000110000000111010011111111101101111100000000101000110000000000000000
11111111100011110000001001000111000000010010111000000001101101010000000000000000
11111111100011010000000000011111111111111100001000000010010110010000000000000000
11111111001011001111111010101010000000011010100100000011001000000000000000000000
11111111110111001111111101001110111111100111000100000011000011100000000000000000
00000000111000011111101001011111111101001101111011111110100101010000000000000000
11111111011110111111111001101101000000011110111011111101000111100000000000000000
00000001011101011111111111111101111111011110001000000010000001000000000000000000
00000001111110010000000001111100111111110000010100000000011011110000000000000000
00000001010011111111111101110101111111100110101100000000101011000000000000000000
00000000001101100000000001100100111111101110100111111111011100100000000000000000
11111111010101111111111110111100000000000110111000000000011110000000000000000000
11111110101111011111111101011110111111111101010100000000000001000000000000000000
00000000010000010000000001101110000000001011011000000000011100110000000000000000
11111111011001111111111111011011111111110101111011111111101110110000000000000000
11111110110000011111111010111010000000000101111011111111100011000000000000000000
00000000110000110000000101110010111111110010111100000001000010100000000000000000
00000000001111001111111111100010111111101100000000000001001100110000000000000000
11111110100011010000000000100011111111101010000011111111000001010000000000000000
11111111100100001111111011010011111111111001101100000000010010110000000000000000
11111111101100111111111101111101000000001100111111111111010000000000000000000000
00000001000010111111111010000100000000000000001000000000000101010000000000000000
00000000111110101111111111010110111111111110110100000000101101100000000000000000
00000000000101010000000011101111000000001000111100000000000001110000000000000000
00000000101101000000000100101000000000001011110000000001010011010000000000000000
00000000110001100000000000000111111111110100010000000000010001010000000000000000
00000001001000010000001110000001111111001111110000000011010111100000000000000000
00000000110011000000000001111000000000000101110000000000011000100000000000000000
00000001100011101111111001011011111111011001100011111100001011010000000000000000
00000000010110101111111110010111000000001000011100000000100001000000000000000000
00000010001101100000000001100010111111101100100000000001010110000000000000000000
11110110110011001111110011011100111111000101110111111101011000000000000000000000
11111111110111111111111101111000000000100110011100000000101001110000000000000000
11111111011001100000000011111011000000000100111000000000111010000000000000000000
11111110001100010000001101101000111111100010110011111101111000110000000000000000
00000000010010010000001000001101000000010010101111111110110011000000000000000000
11111100101001101111111000010011000000000111000100000000010110110000000000000000
00000000110100010000000100110001000001011010001000000001010011100000000000000000
11111110010111111111111011001101000000100111001100000000111100000000000000000000
11110101101001110000000011010100111111011101010100000011110001010000000000000000
11111110111101100000001010101111111111111111011111111110010101010000000000000000
11111111011101010000000101011100111111110011111000000001101010010000000000000000
11111111010111101111111111001010000000000000001100000000011010100000000000111010
00000000100001110000000000100110111111111101011100000000010010110000000000000000
11111111011111110000000010111001000000000000011011111111011111110000000010101011
11111111100110000000000010010101000000000000001011111111010010100000000000000000
11111111111000010000000100110101000000010001010100000000011010100000000001100101
00000000110001110000000010000101000000010100111000000000111011000000000000000000
00000001001100100000000001110111111111111001101100000010000110001111111010100101
00000001000000000000000010110011000000000000011111111111101101100000000000000000
11111111101001000000000100111000111111100101010011111111011010110000000000000000
00000010000110110000001000101110000000101101011111111111011111010000000000000000
00000001100101010000001001000110000000001001101100000000110110100000000000000000
11111111111111100000000111010111000000101000010011111111011010000000000000000000
00000011011010001111101011110001000000010111101011110111111101010000000000000000
00000001110000101111110010101100000000101011110011101100000100010000000000000000
00000100110010111111111110100100000000001101010100000000010100010000000000000000
00000000010001111111111110001011000000000001001011111111101001000000000000000000
11111101010010100000000010010100000000111101110000000000101110100000000000000000
00000101101101000000001011011001111111010111100100000001101110010000000000000000
00000111011001100000000011001111000000000100110100000000000011010000000000000000
11111110000000010000000000000100000000100111101100000000011110000000000000000000
11111110011101100000001001000010000000011001101011111111101111110000000000000000
11111111101100100000000010000110111111110000101111111101111100000000000000000000
00000011100010100000000100101111000000000011001011111110011110100000000000000000
00000011011011010000000110000110111111111010011011111110111100000000000000000000
00000000010000111111111011101111000000100111101100000000011011010000000000000000
11111111001111011111111011110101000000011000111000000001100110000000000000000000
00000000110010111111111101001010111111111100111011111110100001000000000000000000
11111111001110101111111010000001111111111101100011111110100001010000000000000000
00000000101011110000000110010010000000010010011000000000100001110000000000000000
11111111011110100000000000011100111110110100000100000000110111000000000000000000
00000000101010010000000001101100111111011101110100000000001111100000000000000000
11110011111000111111111110100000000000100011001111111101001010010000000000000000
00000000010011010000000000011011000000000111011011111110000011000000000000000000
00000001000010100000000001000101111111111101100000000000001101010000000000000000
00000000010111001111010111000101111111010101011111111111001010110000000000000000
00000000110011001111111001011111000000000111100011101111000111000000000000000000
11111110001101100000000110001001000000100101010000000001001001110000000000000000
11111111110010010000000110100000111111011101010111111101000110010000000000000000
00000011101011000000000011100101000000001000101111111110110111100000000000000000
00000011101110011111110100111100111111101011011011111110010000100000000000000000
11111111111010100000000101101010000000001011101111111110111011110000000000000000
11111111101110011111111100011101111111111001001100000000011000000000000000000000
11111110111100101111111100010011111111110001001011111110100100010000000000000000
00000000011011001111111101001000000000000110000011111110111110110000000000000000
11111111101101101111111101000111111111111100100011111111000100110000000000000000
11111111100111110000000110001010000000001010010000000000011000010000000000000000
00000001001100111111111101001110111111110101110111111111010111100000000000000000
11111111101011010000000011010111111111101001101000000001010001010000000000000000
11111110111011010000000010010011000000010101101100000001010101010000000000000000
00000000001010010000000000111100000000010010110100000000111011100000000000000000
11111110100011010000000001011110111111111010011011111111000111010000000000000000
11111111101111001111111010111011111111101101011000000001001101010000000000000000
11111111000001100000000000110100111111110000100111111111101101100000000000000000
11111110101110000000000100001001000000000010010000000000101001100000000000000000
11111111011001100000000001101000111111110001011111111110110100000000000000000000
00000000010111110000000101011100000000001000110111111111010100100000000000000000
11111111111010101111111000011010000000001110010111111110101010000000000000000000
00000010110000100000001000110010000000011101011011111110001000010000000000000000
11111100001110001111111001001000111110101001000111111110011110110000000000000000
00000000110101101111111110001111000000111001101000000001101111010000000000000000
11111111110101010000000110000000111110110000101000000000110011010000000000000000
11111110010110101111101110111001111111101110010011111111000011010000000000000000
00000000000010001111111001010110000000000110110100000001001100100000000000000000
00000001010001010000000011000000111111000011001100000000010000100000000000000000
11111111001000111111111110011010000000001110000100000001000001110000000000000000
00000000000100110000001100001010000000010000011111111110010000110000000000000000
00000000011010100000000100011001111111111010100000000001100000010000000000000000
00000000100110111111111010110001111110100110101000000000110111000000000000000000
00000001000100101111111001001010111111111110110100000001110101010000000000000000
11111111111110000000001000100011111111110001100111111110110110000000000000000000
00000000010110010000000000100000111111111001100100000000110000010000000000000000
11111111100000000000001000101101111111001000010100000010100110000000000000000000
00000000010100110000000001101111000000000011111100000000101110011111111110011011
00000000101110110000000010011001000000001100100011111111100111010000000000000000
11111111111101111111111101101111111111110111011000000000010100011111111101100001
00000000010100001111111101010101000000000011000000000000010011100000000000000000
11111111111111001111111101000001000000010001111100000001010000001111111100001111
00000010101101110000000001111111111111110101111000000000110011000000000000000000
00000001110000001111111111111111111111111000101100000001111111010000000001001101
00000000011100110000000110100111111111111110010011111111000000010000000000000000
11111101010100111111111010101010000000001101000111111101100000110000000000000000
11111111110000001111111110110101111111011110110100000011000101010000000000000000
00000001001011000000000110010011111111111100010011111101011001110000000000000000
11111111111111110000000100000111000000010101101111111111010000100000000000000000
00000000001001111111100111001110111010111011010000000001001000100000000000000000
00000001101101111111110101100011000000100101010100000011100101110000000000000000
11111110001110010000001000011010111111111011110100000001001010010000000000000000
11111110111000111111111001110000000000001000110100000001111011100000000000000000
00000000100011100000000101000111000000000010111111111111101000110000000000000000
00000000111010100000000111100101000000000011110011111110001010000000000000000000
00000001011110100000000011010010000000010101101000000001011001100000000000000000
11111111101000111111111111010011111110101010001111111111011101110000000000000000
11111111001011010000001010111001111111101011111111111111110110000000000000000000
00000001111101110000001011011010000000011000111000000001110011100000000000000000
00000000010011110000000010000011000000000010001111111111001011000000000000000000
11111111101010110000000011000010000000001010111011111111110100000000000000000000
00000001001101011111111011111011111111110011011000000001100101000000000000000000
00000001010100100000000011101111000000000100000100000000010111110000000000000000
00000001111100010000000110111110111111110010010011111111011001000000000000000000
00000000010100101111111000110100000000001000001011111011110110010000000000000000
00000001000000101111111010001011111110110011000011111111101011000000000000000000
00000000100011011111111011101110000000000100110100000000100011000000000000000000
11111110011111010000000101011001111111110010010011111111001101000000000000000000
00000000101101000000001001100000000000011011011111111101010010000000000000000000
00000000010001111111111101011111000000001110100011111111011010100000000000000000
11111111001000101111111110111010000000110111000111111101001010010000000000000000
00000001000010100000001010001010000000000001000011111110110110100000000000000000
11111111001111101111111101110000000000100101011011111111010100110000000000000000
11111111010010101111111110000011000000010101100100000000001101010000000000000000
00000000011111110000000000100001000000001011010111111110100010110000000000000000
11111111000110101111111110100001000000001111100011111111100110110000000000000000
11111000010111101111111100011011000000010001010100000001101011100000000000000000
11111111000100110000000100000000000000001101101111111111010001110000000000000000
00000001000111100000000101100011111111111101100000000000000011110000000000000000
00000001010110001111111111011111111111110010011111111111001110000000000000000000
00000000111101010000000100011100000000001110101000000001010011100000000000000000
00000000011011100000000101100110000000010011010011111110110010110000000000000000
00000001001110101111111111101010000000010010101000000001001101110000000000000000
00000000001010010000000001001001111111110000111111111111010000010000000000000000
11111110110100011111111101010101000000000101010000000000011000110000000000000000
00000001011110010000000011011100111111110101101100000000100010010000000000000000
11111111110101101111111111100001000000001110101011111111001111100000000000000000
11111111111001011111111111001101111111110111000100000000101000100000000000000000
11111111011001110000000000011001000000010111001100000000001110100000000000000000
11111110111010100000000100111100111111101010000100000000000101110000000000000000
11111111000101011111111111000010000000010110001111111111000011000000000000000000
11111111001111111111111111100011000000010010011111111111100100110000000000000000
00000000100110001111111011111101111111111110011100000000000110010000000000000000
11111111010001011111111100111110111111101010001011111110000001100000000000000000
00000000001100100000000000000010000000010000110100000011011100010000000000000000
00000001011001001111100011001110111111011100000100000001100100010000000000000000
11111101011111001111111100001011000000101110001100000000010001110000000000000000
11111110101011111111101111110111111111111101100100000001110101010000000000000000
00000000101101110000000110101100000000000110000111111111010111010000000000000000
11111110100001101111111110111010000000101010000011111101101100000000000000000000
00000000011001001111100000010010000000010100000100000001101000010000000000000000
00000000001010011111111111010001111111100011011111111101111010100000000000000000
11111111100010000000000110111011000000000001101100000010100100010000000000000000
00000000101110100000001100100000111111111010011100000001111000010000000000000000
00000000000110000000000111011110111110100001011000000000010011000000000000000000
00000000010011010000000110010000000000000110110011111110101000100000000000000000
00000010000011100000000100011000000000001101010000000010010000010000000000000000
00000001110010101111111010101000111111011100100000000000111101100000000000000000
00000010000110111111110000001100111110111100000111111111110001110000000000000000
00000000011101001111111110000100000000000001101100000000001000110000000001110010
00000000000110001111111101110111111111111101101111111111010100100000000000000000
11111111011110111111111101001111000000000001000100000000010000010000000001010111
00000000100110100000000010100011000000001011001000000000010010100000000000000000
11111111000110000000001001100011000000000011011100000000100010110000000110111000
11111111111001110000000000110100000000101100101111111111001111110000000000000000
00000000010001110000000100011011000000001111100100000000001011110000000100101111
00000001000011011111111111111011000000010001000000000000110111010000000000000000
00000011011000110000000001101100111111110110111011111011101011100000000000000000
11111110111011000000000000100011111111111011110011111111110000100000000000000000
00000000110011010000000110010010000000011001000111111111001101000000000000000000
11111110111101101111111010100001111111111001010011111111110111110000000000000000
11111101110101111111111011000101000000001011111011111111010101110000000000000000
11110100010011001111111100110001000000101011000111111101110101000000000000000000
00000011000110101111111101001110000000100011111111111101110001000000000000000000
11111111011010001111110011111000111111100011000100000000000111010000000000000000
11111110000010010000000111000100111011111010010111111110111000110000000000000000
11111111111110011111111101101010111111110010111111111101010010000000000000000000
00000000110110001111111101001010000000011101111011111111010011100000000000000000
11111111110100101111111101100110111111110001100111111101100101000000000000000000
00000011011101001111111100001100111111111100011011111100100011000000000000000000
11111100100110001111111011110001111110011111100111111100100110100000000000000000
00000001011101101111111100000101000000101001011100000000011101010000000000000000
00000000010101111111111100100000111111000001011100000000100010100000000000000000
00000000001010000000000011000001000000001000100000000000110111100000000000000000
00000000011001111111111110100110000000000101010011111110010011000000000000000000
00000000111100101111111100101101000000001001011000000000111100100000000000000000
00000000000110010000000011100100000000010000101011111111010110110000000000000000
00000101001000010000001000101110111111001101001011111111001001100000000000000000
11111011000000111111110111010101000000010010000011111111111000000000000000000000
11110111100110000000000000111001111111100111111100000000011001000000000000000000
00000000100010010000000010001101000000000011100100000000010000010000000000000000
11111111010011010000000010011110000000000011101100000000101001100000000000000000
11111111101000100000000000110101000000000000011100000000101110000000000000000000
00000000101100010000000000001010000000001101110000000001100000000000000000000000
00000000000011011111111100100100000000100110110100000000110000100000000000000000
00000011000100011111111001011111111110110110110011111111001101110000000000000000
11111111110011000000000110110101000000100001001000000001100001110000000000000000
00000001110101011111111010000110111111000011100000000000011100110000000000000000
00000000011110100000000111000011000000010011101011111111110110010000000000000000
11111101010100010000001110011111111111000110111100000010011111111111111111101101
00000001010011110000001000000010000001110110010011111001000011100000000000000000
11110111011011001111110010001010000000011010100011111101011100100000000000000000
00000000010111100000000111000111000000001010101011111110111011010000000000000000
00000001111001100000001001010101111111000010101111101100010011000000000000000000
11111100011110100000000011011010111100001000001100000001000000000000000000000000
11111111101010000000010000010110111110100011110011111100111100110000000000000000
11111011011001100000000010010101000000010000001000000101100011100000000000000000
00000000011101101111111100110101000000101000101100000001011000000000000000000000
11111001000001100000000101011100111110000011010100000011011111010000000000000000
11111010000010110000111100100011111111110001100000000000001101000000000000000000
11111001111100010000000110100101111110100111101111111110111000100000000000000000
00000001010101000000000001011000000000001100000100000011010110100000000000000000
00000000010011110000001000100010111101101010101100000001100110100000000000000000
00000001001100111111111010110101000000110000101000000001010101100000000000000000
00000101110110011111111000101010111111000111100111111010001011100000000000000000
