00000000000010000000000000000011000000000000011100000011011011111111111101110101
00000000001111010000000011010000000000011110110100000010000100110000000110000110
00000000101111110000000000000001000000000100000111111111111100010000000011101110
00000000011110100000000010000001000000000111101000000000100010111111111110000110
11111111000000110000000110000000111111110010010111111111001011010000001100110011
00000010111101011111111011001000000000001000100011111111110110110000000100101101
11111111001011110000000010010011000000000110101011111111101111010000000001101100
00000001010001011111111011100101000000010001010011111111100000110000010000000000
00000001110000000000000100011010111111100001100011111111000110010000000000000000
00000000110111010000000010001100000000011101000011111111010010100000000000000000
00000000010111110000000100000111000000011011101100000001000000100000000000000000
00000001111011100000000010100010111111110110011011111110011001000000000000000000
00000010000011110000001011010101111111100100000000000001101010010000000000000000
00000000110110110000000000100100000000011000100011111111001101100000000000000000
00000000010010111111111011001100111111111011101011111111011011010000000000000000
00000000011010001111110101110010111111101001100100000000111001110000000000000000
00000000010011100000000001101000111111111111111011111111011111111111111110100001
00000000110011110000000001010111111111101110110111111111000010110000000000000000
00000000100110001111111111011110111111001111111100000001101101000000000011111001
00000001110110100000000110000100111111111000000011111111011110010000000000000000
00000000100001110000000000110000000000101011001100000000011101000000000000000000
11111010111011010000000100100000000000101010000011111111110110100000000000000000
00000001110010101111101111111110111111101010010000000000101100010000000000000000
00000001101111010000000010100011000000000110011011111111111000110000000000000000
00000000001110000000000011000001000000000001001100000000001010100000000000000000
11111110101111010000000011100000111111111111111100000000100010010000000000000000
00000000001111110000000100101101111111111101010011111111101011100000000000000000
00000001001011010000000011000000000000000011110011111111011000100000000000000000
11111111010011000000000001100000000000000010101111111111010101000000000000000000
00000000000000010000000010011111000000010011110000000000111101110000000000000000
00000000000110001111111110000001000000010100011100000000110000100000000000000000
11111111011001110000000110000011000000010111001011111111001111110000000000000000
00000000010110010000000010011100000000001100010100000000011101100000000000000000
00000001011111111111111110001010000000001100110111111111011011010000000000000000
00000000011011010000000010101011111111111000111000000001001000000000000000000000
00000000100110111111111111001011111111111100110011111110001010110000000000000000
00000000010000100000000100011111000000000101011111111110101110100000000000000000
11111111001000110000000111011110000000010100011100000001100110100000000000000000
11111111010111100000000011100001000000011010110011111111100101010000000000000000
00000001000110000000000100010000000000011101000100000010001110010000000000000000
11111111111010110000000010111011000000001000100111111111000110000000000000111011
11111111100000111111111101011000111111110011111111111111011110010000000000000000
00000001111111111111111011100111111111101101101100000001111101000000000010011111
11111110001101000000000101101111111111101010010111111111111110110000000000000000
11111111000101011111111011001101111111111111000000000000010100110000000000000000
11110101100101110000010100011100000001001101111100000000111001100000000000000000
11100111000001111111101000011101111111000001000000000001100110010000000000000000
00000000001011111111110001001100111111010110001011111111000001000000000000000000
00000001010000001111111110100111000000101100011000000000111111110000000000000000
00000001110100111111110000001001000000001101010000000000100011100000000000000000
00000000110011001111110011011111111111111010100011111110110000100000000000000000
11111011111010000000000100001111000000101011101100000000011010100000000000000000
00000001101010110000000000111101111111110110011100000000100010110000000000000000
00000001111110000000000011010010000000010111010100000000010101110000000000000000
11111111011101011111111011110001111111111000110011111111001111010000000000000000
11111110011001010000000001101000000000011001000111111111110011100000000000000000
00000000100011001111111111100010000000001100100011111110111000010000000000000000
00000001100110110000000111011111000000001000000100000001101010100000000000000000
11111110001000010000000011101011111111111101110011111111101000110000000000000000
11111111100000111111111101111010111111110110100100000000101010000000000000000000
11111100000010010000000101100101000000001000100011111111011011100000000000000000
00000001100100010000010100101111111111011011100100000000110000000000000000000000
00000001001110100000010110000111000000011110100111111111001010000000000000000000
00000000101100110000001001000100000000001001100100000000001000000000000000000000
00000000110110010000000000101000111111110101010011111111101100000000000000000000
11111101111011110000000011101110000000000110011000000001110001010000000000000000
11111111001010001111111101111111000000011001001011111110000111110000000000000000
11111101111100001111111010001100111111011110011111111110111011100000000000000000
11111111100010001111111101100111111111111111111011111111011001011111111101101001
00000000100111100000000010110111000000001100000111111111100101110000000000000000
00000000010100101111111111100000000000000001010100000000100000000000000010010111
11111111010010110000000010000001000000000101011100000000011111100000000000000000
11111111000101010000000110011111111111111010111011111111010101100000000111110011
11111110101001001111111011100111000000010011111100000000000001010000000000000000
11111111001101111111111101001111111111111010110111111111011110110000000000010000
00000000110001100000000001010000111111110011101011111111110000110000000000000000
00000011001100000000000000011000000000010101001111111110101001010000000000000000
11111101100010001111111001100000111111110111000111111101010111000000000000000000
00000001110100111111110000110001000000110001011000000000000011000000000000000000
00000000011000110000000111010001000000001100000111111110110100100000000000000000
11111111001111111111110110101001111111110101011111111101010011100000000000000000
11111011011101011111111011111100000000101001100011111111101001110000000000000000
11111110011010110000000001100011111111001101000011111110111011110000000000000000
00000001100010111111111110110111000000001001011100000100011001010000000000000000
00000011000001101111111010110101000000000100110011111110001010110000000000000000
11110101110111100000000110010110000000001101111011111100111011010000000000000000
00000010101010101111111100101011111111110001110000000000011101000000000000000000
11111111101110000000000010001111000000101100000011111100111100000000000000000000
11111111010011011111111011100101000000010100001011111011001000110000000000000000
00000001101110110000000100010001000000011110001111111111111001100000000000000000
11111110110010011111111111100010111111111001011011111110011100100000000000000000
11111111010000001111111010110011111111101000010100000000001111100000000000000000
11111110101000010000000110000010000000010000100011111110101111000000000000000000
00000000110110110000000001100000000000001001011111111110111000100000000000000000
00000001010111000000000011110010000000000101010011111111011000100000000000000000
11111111100011000000000000000100000000010111001111111110101110100000000000000000
00000000101111001111111101011100111111111110010111111111100100110000000000000000
11111110101101001111111011110101000000000011001011111110111010100000000000000000
11111111110101111111111100110011111111110110110111111110111100010000000000000000
00000000110001111111111101010010111111111111011011111111111011100000000000000000
00000001000011111111111101001011111111110010010100000001001111110000000000000000
11111111101111010000000011011110111111110001001111111110100111110000000000000000
11111111001110110000000011111000111111111001011100000001000010110000000000000000
00000000001100011111111010101011000000000100010111111111001010100000000000000000
00000000111101001111111101111011111111111111111100000000100111000000000000000000
11111110101110001111111001110100000000010101010100000000111000100000000000000000
00000000101111111111111101100001000000011000010000000000000000110000000000000000
00000000001001000000000101110001111111111000110111111110111001100000000000000000
00000000011110001111110011101000000000001110111011111110110100000000000000000000
11110111100011010000000010001000000000000101001011111111100010100000000000000000
11111010110110111111111101010011000000101001111000000000000000100000000000000000
00000010110100111111111100001000111111110001110100000011111111100000000000000000
11111111001010101111111100000001111110000111011000000000110001000000000000000000
11111001000011001111111000000001000000111000101100000001100110010000000000000000
00000001111111010000000111110110000000101000101000000000100010100000000000000000
00000111001000011111111110001101111111111000010111111100100101110000000000000000
00000011010101001111111110010101000000000001111100000000011001100000000000000000
11111111001101011111111111111001000000010111110111111111000110000000000000000000
00000000001111100000000011101010000000011010111000000000110001110000000000000000
00000000100000101111111000001000000000100010100011111110110000110000000000000000
00000000100000111111111010011110111111101110111000000001101000110000000000000000
11111111000110110000000011011110111111011010010000000000100011100000000000000000
00000000100000101111111000000010111111101011011100000000000000000000000000000000
11111111101100000000000001010100000000011001100111111111101100110000000000000000
00000000101000010000000000001100000000000010110000000000010001010000000000010011
00000000000000100000000010111000111111111010011111111111110101110000000000000000
00000000100010001111111101001101111111111000111100000000000000010000000010011001
00000000001100010000000001111111111111111011111000000000010000110000000000000000
00000011000010111111111000010101000000010001101000000001010100001111110111101011
00000000100111110000000100101010111111101001111000000001010000110000000000000000
00000000110110011111111011001000000000100010011000000000101001101111111011110111
00000010111001100000000001111101111111110010111100000001100010110000000000000000
11110011111001110000010000110101000000001011010111111110001110110000000000000000
11111111100111101111111000001101111111111100101111111111101000000000000000000000
11110001100111110000000111010110000000011000001111111100011111100000000000000000
00000000101001101111110111011000111111110110111100000000010001010000000000000000
11111110100111000000000101010100111111101110000000000000010110100000000000000000
00000001111011101111111011100111000001000101000000000100101011000000000000000000
11111101110001100000000011010110000000001000101011111111101011100000000000000000
11111111100000010000000011101011111111110001100111111110011111100000000000000000
11111101001110001111110110110011000000011000011011111011111110010000000000000000
11111111111111100000001010000110111111000101001000000001011111110000000000000000
11110110001010110000000011111101000000000010000100000110010011110000000000000000
00000010101010001111110100100001000000110111011100000011111010100000000000000000
00000000100101000000000100100010000000101000011011111111000010110000000000000000
00000001000000110000000111000111111111101101101111111110100011100000000000000000
00000000010101011111110010101111000000001111100011111111100100010000000000000000
11111111011010100000001010000000111110111001001111111110111101010000000000000000
00000011010101111111111110111100111110101011111011111101100110000000000000000000
11111111001000010000000001100001111111101111110000000000101011010000000000000000
11111110000001011111111000101011111111011111010000000000011011110000000000000000
11111101111100100000001000101101000000001111100100000001001100100000000000000000
11111111000000010000000101001001000000000000000000000000001011100000000000000000
11111110110011000000000000001111000000101000110100000000101000000000000000000000
11111110010101001111111001011011111110000000010011111111010111110000000000000000
00000000110011110000000100100011111111001110011100000000101100000000000000000000
00000010111101001111111011101100111111000000011011111111010001100000000000000000
00000001001110111111111111110101000000000101001000000001110101010000000000000000
11111011101110110000000000110001111111110010010111111100111011100000000000000000
11111101001000101111111100011100000000010000000100000000010101010000000000000000
00000001101000101111111001101111000000011001010100000001011001110000000000000000
00000000000001010000000001111010111111110111111100000000110100110000000000000000
00000000111111011111110011011111000000011111011111111101010100010000000000000000
00000000101001111111111101110101000000010111110000000000111000000000000000000000
00000000001001111111111110001111000000010111101011111111110010110000000000000000
00000000111001100000000000110001111111111011001100000000010010010000000000000000
00000000011100101111111110010000111111110110010000000000110010000000000000000000
00000000001011110000000011110110000000000110001011111111011100100000000000000000
00000000010101110000000011001001000000001110101111111111111110000000000000000000
11111111110110101111111011001011111111111100101011111110100100010000000000000000
11111111111111000000000011011001000000000100100000000000110001110000000000000000
11111110100101101111111010100011111111100111110000000000100101000000000000000000
11111111100101011111111010111101111111110011101000000000001001110000000000000000
00000000010100011111111100101110000000010110010111111111100001100000000000000000
00000001000111100000000001110111000000001001100100000000111111010000000000000000
11111110110110111111111101000000111111101001010000000000100100000000000000000000
11111110111111000000000000001111111111111010010011111111001010110000000000000000
00000000000100011111111010010111111111101110110100000000111000000000000000000000
00000001011101011111111011110011000000000101011011111110110010110000000000000000
11111110101010010000000011001111111111110110110100000000011000100000000000000000
11111111010001010000000010111010111110111101011000000010000111010000000000000000
00000010001101101111111011001011000000001111101111111101011111000000000000000000
00000000111110010000000110100011111101000110011011111101110010010000000000000000
11111111000100010000001000010101111101111101110100000011100011010000000000000000
00000000110011100000000101100011111111110010100100000000001110100000000000000000
00000011100110011111110111001010000000111011100011111111101010100000000000000000
11111000100111011111111100010100000000011000101111111100101011010000000000000000
00000001001110001111110110101001111111101001010000000001000000100000000000000000
11111100010101011111111100011010111111111101101100000101001010110000000000000000
00000011000111000000000110100111000000000100000100000001011011000000000000000000
11111111111111000000000011001000111111101111010111111111111100010000000000000000
11111110011100011111101011000010111111110010010100000001001110110000000000000000
00000001110111011111110011111011111111101100001000000010000000000000000000000000
11111100000111100000000000010010111111111000111000000001001010000000000000000000
00000000000110000000000000111000000000101011110000000000011100100000000000000000
00000001000101010000001001011011111111111100000011111110100100010000000000000000
00000000010011101111111110100010111111111000010111111111100010000000000010100111
00000000101011000000000010111000111111111000111100000000011101100000000000000000
00000000100100000000000000101001111111110011010100000000010011010000000000111111
00000000100110100000000000000110000000000001011100000000010110010000000000000000
11111111001100110000000110001111000000110110110000000000011100100000000000110000
00000001000000011111111111001100000000010001010000000001011110000000000000000000
00000001001011000000000001011000111111101101010100000001100001111111111110000100
11111110100100110000000100100000000000010010000011111110101110110000000000000000
11111101101001101111110110111110111110001110001100000010000000100000000000000000
11111100110100010000000001010001111111101110101000000001110011100000000000000000
11111010111101001111111010110001111111110100101011111101000110010000000000000000
11101111100011100000001010111100000001000110100011111011110010000000000000000000
11111111100001110000001111101001000000000000110011110101111001110000000000000000
11111010000010100000000111100010000001000111000011111110100000100000000000000000
11111111011100111111111111101110000000001001010011111111101101110000000000000000
11111100011000100000000111101000111111110001001011111001000011110000000000000000
11110100110011010000000100101011000000011100010011111111000100110000000000000000
11111100011010001111111011000111111111011011010111110101110101000000000000000000
11110110000110011111110110001011000000010110011011111101000100110000000000000000
11111111100001101111111000000101111111110011101011111101111100000000000000000000
00000001011101010000010000001001000000000011001011111111100101010000000000000000
11111101101010111111100101011000111111001011111111111101110001000000000000000000
00000000000011100000000101110110000000000100000111111111111000100000000000000000
11111100010100101111111110101101111111100110100111111100010011110000000000000000
00000000111111000000000000000101000000000011001100000001001010010000000000000000
00000000001100011111111110010111000000001101111100000001110000010000000000000000
00000000010101100000000010101100111111001100100011111111111010010000000000000000
00000010000010100000000100110011111111010111010000000000000011000000000000000000
11111000001010100000000000111110111110010011000000000000111000000000000000000000
11111100010100010000000010001001111111101110101011111111100010010000000000000000
11111110111100011111110110011000000000000011111111111111100000010000000000000000
00000000110010100000000111111111111110100101001011111110010001010000000000000000
00000000100010111111111100110101000000001101010011111110010000110000000000000000
00000010001110010000000100000101000000101011111000000001011100000000000000000000
00000001010010101111110111100010111111010110110100000000011010000000000000000000
00000000101000111111111111110011111111101011001111111111101111110000000000000000
00000000011111000000000010010111000000001000111111111110101111110000000000000000
11111110000100000000000001001001111110111010100011111101111101100000000000000000
00000001100000001111101100001111000000010001100100000000001000000000000000000000
11111111000111010000000001011101000000001011110111111111001001010000000000000000
11111111100100000000000101001111000000000001110000000000111111100000000000000000
11111111111110010000000101110110000000010100001000000001001011000000000000000000
00000000000100110000000000011001000000010100100000000000001110100000000000000000
00000000100011100000000001001001111111111010110111111110111010110000000000000000
11111111101110111111111001110111000000001110000100000000001100100000000000000000
11111110101101000000000001100100000000000011110111111110111101010000000000000000
11111111000011111111111011000101111111111010111111111110110010000000000000000000
00000001010100000000000000001100111111101100001111111111001000010000000000000000
00000000110011011111111010110100111111110010001000000000110110000000000000000000
11111111001110000000000010111101111111111110010111111110111101000000000000000000
00000001011100011111111111111010000000010111100111111110110111110000000000000000
00000000001011010000000100101110000000001010101000000000010100000000000000000000
00000000011010100000000100100101111111110101001100000001010001000000000000000000
11111110111010100000000001000000111111101011111000000001000001100000000000000000
11111110101011010000000100110011000000001010111000000000110110110000000000000000
11111111001100011111111111110000000000001111001100000000111110100000000000000000
00000001111011111111111111010001000000101101101111111100110110010000000000000000
11111110000001100000001000110001111111111011110111111111001001010000000000000000
00000001011111100000001011001100111111111001000011111111110110110000000000000000
00000000110111011111101011010110111111011110010111111011110011010000000000000000
00000001000000010000000101000011000000101111100100000000010110100000000000000000
00000001001000010000000000101001111111001010010011111110111111000000000000000000
00000010010001010000000000010010111110110001011000000001110101100000000000000000
11111010101010101111111010010110111110111010000011111110000110100000000000000000
11111100111110001111110110000011000000001111101000000001011100110000000000000000
00000000011110111111111111101100000000110001000111111111111110100000000000000000
00000000000111001111110101011001000000001000011100000010010010010000000000000000
00000000000011101111110101110001111111000110001111111111000001100000000000000000
00000001100010000000000100100000000000100001100000000001000111110000000000000000
00000000001000111111111101001100000000010001010011111110000100100000000000000000
00000000100001110000000101100101111111011100001000000000101011010000000000000000
11111111100100100000000111000100000000000010111000000001010101100000000000000000
00000000001010110000000001100100000000000010101000000000101000001111111110100101
00000000010001110000000010001101000000000110101100000000100110000000000000000000
00000000001100010000000000110110000000000110111111111111111100000000000010000001
00000000000111101111111101111111111111111110101100000000000101010000000000000000
00000000100110000000001011110111000000110010100000000000011010110000001001101101
00000000110101000000000100011001000000100100010000000010001010010000000000000000
00000001100011111111111100100100111111001000001000000001111110000000000010011011
11111011000001000000000011100111111111111110111111111110001000000000000000000000
00000000000010111111111110110111111111010011011100000011010010000000000000000000
00000000011001001111100001001001111111111010001011111111111011100000000000000000
11110011011110100000000010010000111111101101001000000001101100000000000000000000
11111100101111110000000010111100000000001101100111111101100011110000000000000000
00000000001000111111111110110000111110011011110000000000110010000000000000000000
11111111011100111111100110011101111111111010111111111111011010010000000000000000
00000001000000000000000010111010111111110001011111111110110110110000000000000000
11111101111011101111111110110110000000000011001111111110011000100000000000000000
11111111000110000000001010001110111111111001000000000010011010110000000000000000
11111110000101010000000111000110111111011000111011111111011110100000000000000000
11111100100000101111111010111000111100111011101000000011011010010000000000000000
00000001100001011111110011111100000000001000011111111111111000000000000000000000
00000000010101000000000001101100111111111100010000000011011010110000000000000000
11111110000100011111111010000100000000000010011100000000001111000000000000000000
11111101110101000000000011101111111110100001100100000010000100010000000000000000
00000000001101001111101000001001111111000110011111111100001101100000000000000000
00000010011111111111111011110100111111101010000111111110110001010000000000000000
11111001111011100000010101011010000000000111100100000000101000110000000000000000
00000001001101101111111100001100000000010011010011111101111000110000000000000000
11111110110000000000010001101000111111011100101000000000110110100000000000000000
11111100010111111111111010010011111100110101010011111110010110100000000000000000
00000001001011011111111100111110111111001111011100000000000101000000000000000000
11111111000101001111011011010110111111000011001000000000111101000000000000000000
00000000011100000000001111011010111111011010011100000000010101100000000000000000
00000000100011100000000000001101111111111011111000000000011000010000000000000000
11111111100100000000001100000011111111100011110100000010011110110000000000000000
11111101111101100000001000101000111111011100100011110110111001110000000000000000
00000001010010011111111110001000000000000000101011111110010000110000000000000000
11111111010001110000001000001111111110100010001100000010011100010000000000000000
00000000011011001111111010101001111111110100100100000000111110000000000000000000
11110011011000001111101110100101111111100010111011111101010111000000000000000000
11111101010000111111110100001110000000100011011111111111001001100000000000000000
00000011001111100000011110110010000000100100010011111001110000001111110010111011
00000010001001100000011001110111111100111101110100000011001101000000000000000000
11111011001000001111100010001000111110100000101000001010110111000000000000000000
11111001111001101111111010011110000001001010001100000010000100110000000000000000
11111000011001000000010010101110000000100101101000000011000010100000000000000000
00000101000000111111100000101001000000100001011011110110011101000000000000000000
11111100010100011111101110101100111111010110110111111010001100000000000000000000
11111100001111100000011010000010111111010111011100000011110110000000000000000000
00000000011110000000001111010000111111110111001100000100011011010000000000000000
00000011011010010000000011000010000000011010001000000010101111000000000000000000
00000010011001010000001111001010000001001011100000000010010001110000000000000000
00000011011110110000001100111110111111100111110011111101011010110000000000000000
11111110011110000000000000001010111111011000101100000110101010000000000000000000
00000100001011001111111001001011000000010110100100000100101111010000000000000000
11111101101001011111110100101110111111110000011111111101011010100000000000000000
11111110011110100000010101011111111111010100111100000001100111110000000000000000
