11111111100110001111111111110001111111110111100000000000111100011111111110001001
00000000110001100000011000010010111111111001001111111111111001010000000111001101
00000000010001100000000011001000000000001010100111111110100010101111111100010111
11111111010110001111111101000000000000100001001100000101110111001111110111110100
11111111100100111111111101111110111111111111001011111111010011100000000001101001
11111111010110101111111101010011000000000101010000000000011110111111110010010110
11111111111011100000000100101001111111110011101000000000000000100000000001011111
11111111110101110000000100000000000000001010011011111110111010000000001100010001
00000001011000100000000110110010000000001110101011111110101001110000000000000000
00000000000010110000000100000010111111101110010100000000000100010000000000000000
00000001111100101111111111011001000000010101110000000000000111100000000000000000
00000000110000000000000010101100000000010010000000000001111000010000000000000000
00000000000001110000000000000110111111010010100100000000010101100000000000000000
00000010011100111111111100011101111111101001111000000000001011110000000000000000
00000000001011100000000010111111000000000011011011111111000110110000000000000000
00000001000111100000001000000100111111110000010100000010011000010000000000000000
00000000110100010000000010000010111111110000101000000001000000011111111110100100
11111111000110001111111110100110000000000001001100000000111000010000000000000000
00000001010110000000000100001001111111111001001000000001100111100000000010010111
11111111011011100000000011001111111111111101110011111111001111100000000000000000
11111101000100101111110010110001000000011011101111111100110110100000000000000000
11111110000001101111111000101110111111100100110011111111100111100000000000000000
11111111100100001111111001111000111111100110111100000000111001100000000000000000
00000000101001011111110110011011000000010100011111111011001001010000000000000000
11111111111111111111111110101100000000000000111000000000001101000000000000000000
11111110101111001111111010110000000000000010110000000000100100100000000000000000
11111111110110000000000101010001000000010101100111111110100100000000000000000000
00000000001101001111111101111111111111111000010111111111001110100000000000000000
11111110101101010000000010101000000000000011101100000000011011100000000000000000
11111110110101011111111011001101000000000011101011111111010010010000000000000000
00000000000000100000000011111101000000001011001000000000110010110000000000000000
11111111101000001111111111001010000000000110001011111110110111110000000000000000
11111110000111110000000101011001111111110111101011111111000010100000000000000000
00000001110100110000000010011000000000000010011000000010101001000000000000000000
00000001000001100000000101111011000000010110101011111110000111000000000000000000
11111111011100000000000110000001111111110111001000000000101000110000000000000000
00000011100100101111111011111011000000010110000000000000011110110000000000000000
11111111001110000000000101001100111111111111110000000001100011000000000000000000
00000001000010111111111010100010000000010110101111111111111000110000000000000000
11111111101100010000000011010110111111110111010000000001001110110000000000000000
00000000111010111111111101110010000000010000101111111111011111110000000011110000
00000000100001001111111101010010000000000010110111111111001011000000000000000000
00000000110010001111111101100111000000001010011000000001110100011111111101010111
00000000110110100000000010011110111111111011010000000000000101110000000000000000
11110101111111110000010110010100000001000001000100000000110111110000000000000000
00000011101101111111111110010011111111111001110100000010010110000000000000000000
00000010011001001111110111100100111111101100111100000000000010110000000000000000
00000010101001101111110111101010111111001100111100000010001101110000000000000000
11111111010001101111111110000000000000001000100111111111011110000000000000000000
11111111101101111111111110101011000000000100000100000010000100110000000000000000
11110111011010100000010000101110111111100101111011111110111010110000000000000000
11111111100110001111111011100000000000001101101011111111111011010000000000000000
00000001000110001111111110000100111111110101101111111110001010110000000000000000
11111111110101001111111000000110000000010101001011111110101111110000000000000000
00000001100011000000000011110011111111101001000011111110111000000000000000000000
11111111100100111111111000001001111111101100000111111111010110000000000000000000
11111110111110000000000111111011111111111010000111111111000101000000000000000000
00000000000001101111111011101000000000010110010111111111010011110000000000000000
11111111010110010000000101100111111111101010011011111111111110100000000000000000
11111110101000011111111111001000111111100000110100000001110111110000000000000000
11111111010111101111110011010110000000011110001111111111100000010000000000000000
11111110100110001111110110000101111111101111101111111110110110000000000000000000
11111111101011000000001000110000111110000010110000000001010010000000000000000000
00000000100110000000000011010110000000100001101100000001101011100000000000000000
11111111011010110000000111111010000000000100101011111111011010000000000000000000
11111010001111010000001111011111111110100001010111111111001000100000000000000000
00000010111100100000000010101111111111101001011111111100010101010000000000000000
11111110010011000000000000010000000000011010100011111110100001000000000000000000
00000000010000001111111110010100000000000011101000000000000100010000000001010110
11111111110000010000000011001010000000000001001011111111110010100000000000000000
11111111111001000000000000101100111111111001110100000000101010101111111110010000
11111111110110110000000010111001000000000111101100000000101000000000000000000000
00000001101110100000000001011000111111111110111100000010011010100000000010010000
11111111101000110000000011000000000000000100100111111111101111010000000000000000
00000001010111110000010001000010000000000000111011111111100110110000010111110110
00000000010110110000000100000001000000000111110100000000001110110000000000000000
11111111100010010000000000101101000000110100111100000000010000100000000000000000
11111110010110100000000101110011000000011000110100000001100010110000000000000000
00000010110000011111111110000010111111111111100111111110101000110000000000000000
00000001010010100000001010011010000000101000110111111100101111010000000000000000
00000001010010010000000100100001000000100111011011111111010001000000000000000000
11111101101101110000000100110000111111100100011111111111010000110000000000000000
00000001000011010000000000101111111111111101001011111111011010000000000000000000
11111110111001010000000001101011000001001110111100000001000000100000000000000000
00000011101000101111111100111101111111100110011111111111101010010000000000000000
11111001110010011111101010000000000000011010010100000001111001100000000000000000
00000010100000111111111000100101111110111000101000000000010111110000000000000000
11111011000011011111111111111011111111000101101000000001110011000000000000000000
00000000011100100000000011110110111111001101000000000000000111000000000000000000
00000010111011011111111101011001111111111001111011111111010000100000000000000000
00000000111011010000000010010110000000010011111000000001000111100000000000000000
11111110000111011111110100000010111111011111100111111100001000010000000000000000
00000001011111001111111010011111000000000110010100000001000001000000000000000000
00000000100110000000000001110011000000000010110100000000010001010000000000000000
00000000000101101111111100100011000000010110100111111111110000100000000000000000
11111111101110100000000000110100000000000010010111111111001000000000000000000000
00000000001010011111111011000010111111101111000011111111010110100000000000000000
11111111000111011111111100011111111111101110111111111111101001010000000000000000
11111111111001110000000011110011000000010111010000000000111111000000000000000000
00000000010100110000000001111100000000000000001000000000111010000000000000000000
11111111010101000000000001110100111111111010100011111111001111010000000000000000
00000000010110010000000110000010000000010110100100000000110110000000000000000000
11111110100100010000000010001110000000001101110000000000110001010000000000000000
00000000000100001111111100100110111111101001101000000000010000110000000000000000
00000000001100111111111101101111000000000011110100000001010011000000000000000000
00000000100100010000000000101110000000000011111011111110101000010000000000000000
11111110101111111111111101100101111111110011100111111111010111100000000000000000
00000000010011110000000100100000111111111110010011111111000101000000000000000000
00000101000100010000000010001100000000001100011011111100001010000000000000000000
00000010101101101111111110001101000000100010011111111111011001000000000000000000
00000001110101100000000100110010000000000110000000000010100000000000000000000000
00000001010011011111111111001100000000000111111011111111111001000000000000000000
00000000101101010000000111111011111111111111110100000010001111110000000000000000
00000011000011000000010000110100111110101111000100000011110111010000000000000000
00000001110101010000000001101011111111101000010111111101101110100000000000000000
00000001110001110000001010011010111111111101101000000001011000100000000000000000
11111100000110100000001100001111111111011110001000000000011001100000000000000000
11111110100010100000000110100000000000001110001100000001010011000000000000000000
11111111000100011111111110101111111111010100100011111111110100010000000000000000
11111110111111110000000010010000000000011000010000000010001101010000000000000000
00000011100011000000000110010000000000100101110000000001010110110000000000000000
11111000001001001111101010101100111101101001101000000100000101110000000000000000
00000001101110110000001000110110000000111110011100000001111101010000000000000000
00000001011111000000001001110000000000001110111000000001111100100000000000000000
00000000101101100000000010000100111111110111001000000000101000100000000001011110
00000000000000110000000010100011000000001010011100000000011010010000000000000000
11111111110001101111111101110000111111111001001100000000001101100000000001001111
11111111010100110000000001101001111111110100001000000000010001110000000000000000
00000000110011101111111000000000000000010001101100000000001111111111111011101100
00000000111111010000000010001010111111100111101000000000111110000000000000000000
11111101000000101111111011111110000000010101110111111110111101000000000000001011
00000001110110111111110110100001111111110110001000000000101110010000000000000000
00000010001010001111111111101011000000000011001000000000100011100000000000000000
00000001000000001111011110100000111111010001110100000000110100000000000000000000
11110101100011101111111110100100000000000111110100000001101011100000000000000000
00000010101010101111110011010110111111010011100111111011001101110000000000000000
11111001001000000000000101101111111111111101110011111101111011000000000000000000
00000001010001100000000111001110000000000111010000000010000011000000000000000000
00000000101001111111111011100001111111101110001000000000001110000000000000000000
00000100000010011111111100110111111111101100101000000001100010100000000000000000
00000001011100011100111101011001111111110100110111111110010010110000000000000000
11111101000100001111111100001000000000010101011000000101010101010000000000000000
00000011101001100000001010010100000000010001001011111000101010100000000000000000
00000100000110101111101111101000111110011000001100000001100111010000000000000000
00000110100011001111111111110100000001000010111011111101010010110000000000000000
00000110111000110000000010101001000000110010010100000000010101000000000000000000
00000100111100100000000110000000111111101100011011111111110111000000000000000000
11111111011100101111111100010010000000010111100000000001001011110000000000000000
00000000001001111111111011100001111111110100101000000001010110100000000000000000
11111111111100000000000000000011111111111000111000000001110000100000000000000000
00000010011001001111111100100100111111011011100011111110000101100000000000000000
11111111000101010000000101011101000000001100010000000000101110000000000000000000
11111111001000100000000010000111111111101100000100000000010000010000000000000000
11111011000001000000000010001111111111100100100011111110001001110000000000000000
00000010010000111111110111101101111111110110100000000000011000000000000000000000
00000101010010011111111110011011111110111100100100000001011000100000000000000000
00000000010011001111111111010110111111101001101100000000101010100000000000000000
11111100100110010000000110110010000000010111111111111101100110110000000000000000
00000011100100010000001000000110111111011010011111111101001011110000000000000000
11111111100111011111111001110001111111111001111000000001110000000000000000000000
11101111111100100000000111001101111111000101000000000001011010110000000000000000
00000000000010000000000101101101000000010111101000000000000010100000000000000000
11111110001100111111111111000101000000011111000011111100111010000000000000000000
11111111010011111111111001010111111111110111100000000000011001010000000000000000
11111110110101111111111010000110111111110011101111111111110110100000000000000000
00000000101000110000000110001100111111110000110111111111100001100000000000000000
11111111010110101111111111011000111111111000001100000000101100100000000000000000
00000001000110110000000101000000111111110010110111111111001111100000000000000000
11111111111010000000000100010110000000011000101111111111010111010000000000000000
11111111001010000000000100101001111111111101010111111111111101000000000000000000
11111111101110111111111101000100111111111100110000000001011110110000000000000000
11111111110011000000000011000011111111110010001100000001001110110000000000000000
00000000101001110000000101000000000000000001001000000000100100110000000000000000
11111111000000011111111011101110000000010111011000000000101001100000000000000000
00000001011010110000000101101111111111100111101000000000010100000000000000000000
11111110110001111111111111000101111111111011111111111110111011010000000000000000
00000000000010000000000001010011111111111000011000000000010111100000000000000000
00000000100101110000000000011011111111111101100000000000110110010000000000000000
00000000000001011111111100000100111111101100101100000000000111000000000000000000
00000000001111101111111100101010000000001000111000000001001101000000000000000000
00000001101101010000000100010011111111001111100000000001101001000000000000000000
11111110111111001111110110111100000000001000111011111101111011010000000000000000
11111110111000010000001011101100111111110101100100000010100100100000000000000000
00000001010000110000000011010110000000000111000100000001100011000000000000000000
11111110111100011111111111010101000000101100000100000001100000100000000000000000
11111111110011111111101101000110000000001010101100000001011000110000000000000000
11111111101100000000000100100000000000101001110100000001000101100000000000000000
00000000011010011111110101010110111110011101100011111111011010100000000000000000
11111111101101111111110010111111111111111001101100000010110101100000000000000000
00000000010111100000000010010000000000100000001011111111101101110000000000000000
11111111000100000000000111100000000000100100000011111100100001110000000000000000
00000000110001010000001010010111000000001100010000000000000000110000000000000000
11111111100010010000000000111100111111001000011111111111010111010000000000000000
00000000010000010000001110101000000000011011101111111011101100000000000000000000
11111101001101000000000001000100111111011100100000000010010111000000000000000000
00000000110111001111111111000101000000101111111111111110111101010000000000000000
00000000010010100000000000110111000000001010101011111111110110100000000010100111
00000000001101011111111101101110111111110110010100000000000110010000000000000000
00000000101101001111111111110111000000001001011000000000001011010000000001011010
00000000000011111111111110011110000000000100110100000000101000110000000000000000
00000000101011010000000010110001000000011010111111111110101111100000000010010001
00000001110000010000000011110111000000001011101000000010100011100000000000000000
00000010111101100000001001101001111111111000111011111111111111100000001000101111
00000000001101000000001100011010000000011100011011111111100010110000000000000000
00000010110100101111101001111111111111000100100111111111101001100000000000000000
00000010000101001111111110100001000000111111000111111111110000110000000000000000
00000001000001000000000111001110111111100111010000000000110100010000000000000000
00000000010001010000000010111000111111010000001000000001110100100000000000000000
00000000001101000000000000011011111111101000011100000001001101100000000000000000
00000000001000110000000001100100000000001101110000000100011010010000000000000000
11111110011110110000001001110101000000001100100111111110110001000000000000000000
11111101000111010000001010011100111111100011000100000010010111110000000000000000
00000001101011100000000000111010111111101000100100000000100010000000000000000000
11111111100001001111111011111010000000100101111111111110000011000000000000000000
11111111000011010000010000010110111111100001101011111010111001110000000000000000
00000001101010110000000000111100111111011001010011111111111100000000000000000000
00000000010111000000000001111101000000011011110011111110111000100000000000000000
00000000001011001111111101111100000000101101100100000001100101110000000000000000
11111110100000010000001010000001000000000110001100000011010100110000000000000000
00000001101100111111110111110110000000011101110111111110100001100000000000000000
11111111111110101111111100011010111110110101111111111110110010100000000000000000
00000001000001010000000010111001111111110111010000000011011000010000000000000000
00000000100011011111111111110101111111111011010011111110000101000000000000000000
00000001000100010000000100010011111111111110010100000011010011100000000000000000
11111111111100000000000000100101000000000111010111111110101101000000000000000000
11111111000101000000000100100001111111001111101000000000010110010000000000000000
11111110000101110000000101011100111110110101100000000001100111010000000000000000
11111111011001000000000101001011111111110010110011111001000110110000000000000000
00000001000111011111111110001001111111111011001111111111110000100000000000000000
00000010010110010000000001110100000000010100101111111101100011110000000000000000
00000000001010000000000010100110111111110011100000000001110000100000000000000000
00000000000001110000000110000001000000011100100100000001101111110000000000000000
11111101111110000000000010101010111111011101001100000011100001000000000000000000
11111101110000111111101001110001000000010111011011111110100110110000000000000000
00000001100010001111111110011001000000101101110011111011001000000000000000000000
11111111100111111111111011011111111110100001111100000000110001010000000000000000
00000001100000100000000011101101000000000101110000000000001110010000000000000000
00000000111111011111111010110010000000001001110100000000110001010000000000000000
11111111001110000000000101110101000000010000100111111110111000100000000000000000
00000000110101010000000010000110000000010100010100000000100011010000000000000000
00000001010000101111111100001001000000000011001111111111010100000000000000000000
00000001001101101111111010100001111111110000001111111111101011010000000000000000
11111111101010000000000100010010000000000110010111111111010001000000000000000000
00000001001010001111111101011110111111101001010100000000100000110000000000000000
00000001000001101111111010100001111111101100111111111111110010010000000000000000
11111111010001111111111101011101111111101110001011111110100011110000000000000000
00000000001100001111111100101100111111101100000000000000001011010000000000000000
11111111111000000000000010101100000000010011011100000000111001110000000000000000
00000000101001100000000001010011111111110010111111111110100001110000000000000000
00000000111111010000000000011111000000000101000100000000110001000000000000000000
11111111010001101111111101100100000000010101111111111111111101000000000000000000
11111110111010101111111100110101111111110011100000000000011101100000000000000000
00000010100010100000001100100101111111111000100011111111011011000000000000000000
11111101100000100000000010000001000000001010110111111110101010010000000000000000
00000010010010000000001100100001000000000101101011111111011001000000000000000000
00000001010110100000000000101101111111101101111000000001110000100000000000000000
00000000011000101111111111111101000000001110110000000001001001100000000000000000
11111100110101010000001100000011000000000010111100000001101111000000000000000000
11111110101111011111111001100001000000101110011100000010000011110000000000000000
00000000010100001111111010000000000000010111101000000001111010000000000000000000
11111101010010011111111100111110000000010111101000000000011000000000000000000000
11111110000000111111111100000110111111110111111000000001000110100000000000000000
00000001110111100000000101011111111111111111111111111110101001010000000000000000
00000000101111011111111010101110000000011110111100000000111110110000000000000000
11111110001111111111101110000100111111000110010100000001011010100000000000000000
11111101110000111111111111101111111111111110001000000001001111100000000000000000
11111111010011100000000001001000111111111101011000000001110101010000000000000000
00000000001011111111110010101011111111101000110000000001001111110000000000000000
11111111110000010000000001010111111111110111101100000000001101010000000000001010
00000000001010110000000010101111000000000010100000000000101101000000000000000000
11111111110101100000000001100011111111111100111000000000101110110000000010111001
11111111011100111111111111110100000000000011001111111111111001010000000000000000
11111110110011011111111111100011000000010101011111111011010011110000000011000100
00000001010010111111111110111000111111111010100000000001000001000000000000000000
00000001110100000000000001011100000000001001000100000100101110110000000100101000
00000011111101101111111111111110111111010000011100000000000001100000000000000000
11111110000110100000000001111011111111111111101100000001100111000000000000000000
11111101011001011111111010111010000000010101111000000000001001000000000000000000
11111101101111010000000001000101111111100100110111111101111111000000000000000000
00000001111111101111110101101111111111110101100011111110100010110000000000000000
00000000001000011111111110001110000000000010101000000000100110110000000000000000
11111110110110110000000010011101000000000011110100000000110100000000000000000000
00000010101011111111110000100110111111110101110011111010100110100000000000000000
11111010000111111111111110110001111101111110110011111110110110100000000000000000
00000011100101101111111110100100111101111001000111111111010101100000000000000000
11111111100001100000000011001011111111100111000000000001001011010000000000000000
11111111110100110000000100100011111111101001111000000000010001110000000000000000
11111111000110101111111000111101000000010110001011111111010001010000000000000000
11111111110101011111111011111111111110110110011011111100000001100000000000000000
00000001011101101111111101010111000000111111101111111100111011100000000000000000
00000001011011001111111100001100000000011101011000000000111011100000000000000000
11111101111110000000000000011000111111011011011111111111001011110000000000000000
00000000110110100000000100111000000000100001110100000000001101110000000000000000
11111111010010111111111011001100000000000001111000000010000101000000000000000000
11111110101110000000000010111110111111111011011000000000100100110000000000000000
00000010001101011111110101000001000000010101001111111101001011100000000000000000
00000000000101101111100111110110111111110100100111111011100001000000000000000000
00000001111011111111110011010111111110000100000111111110110110010000000000000000
00000011001010001111110101010011111110111110000100000000100000100000000000000000
11111100010110000000000100001101000000110111000000000010000110100000000000000000
00000000110010001111111011011101000000001100100011111111101101110000000000000000
00000000110111100000000001110100000000000001111011111110100101110000000000000000
11111110001101010000000101000111000000000001010111111101000101100000000000000000
00000000100011111111111011011001000000111100011011111100011100010000000000000000
11111111110111001111101111111111000000010000100011111110100000010000000000000000
00000001011011101111110111110001000000010111001100000000100110000000000000000000
00000010001110101111110110000111111111011101000111111110110000010000000000000000
11111101111101000000000000101011111110010010101111111101111111100000000000000000
