11111110000000011111111111010110000000010100110100000000100111110000000000001010
00000000010010001111111110000000111111110000001000000000011101001111101110110110
00000000011010101111111010001011000000000001111000000000100001011111111100011111
00000000011010011111111110111011111111110001100011111111110000101111101110000011
11111101110101011111111101011001111111101010100100000000100110100000000000011001
00000001010000000000000110110011000000001010111111111111111100101111111100011010
11111111000111101111111110000110111111110110011111111111010011101111111101100010
00000000001111001111111110010001000000000000010000000001000001101111101101000110
00000000000100011111111001101101111111111101111111111110011000100000000000000000
11111110100001111111111100011100000000001000001111111110000010110000000000000000
00000000000110100000000111100000111111101010000011111110111001010000000000000000
00000001110100111111111101001000000000000001001100000001110111010000000000000000
00000000111110100000000011011000111111111001000100000000111000000000000000000000
00000010001001011111111010111100000000101011101011111101011001000000000000000000
11111110100000101111111111101000111111101100001100000000000100100000000000000000
11111111110011110000001001001001000000001101000111111110100110010000000000000000
11111111110101000000000011100001111111111010011111111111010011110000000010101110
11111111011110011111111111011110111111110011010000000000001000110000000000000000
00000001011111111111111111010011111111110111111000000010010011100000000000110111
11111111000111100000000101001100111111111101011011111111110001110000000000000000
11111101010001111111111110111111111111011000101111111110110110110000000000000000
00000001100010000000000110010111111111111111011000000010111010100000000000000000
11111111011110011111111111000011111111011111101111111111011001010000000000000000
00000001101111100000000011001000111111100110000100000000111010000000000000000000
11111111111111101111111101101101000000001000110100000001000101100000000000000000
00000000001001100000000000010111000000001110111111111111011010010000000000000000
00000000101010010000000011101010000000010001010000000000011000110000000000000000
00000001001011010000000000011001111111111010100111111110110111110000000000000000
11111110101000111111111111110110111111110111011000000000001111000000000000000000
11111111000101000000000101111000000000011000100011111110101101100000000000000000
00000000000011100000000001010000111111111101101000000000011111110000000000000000
00000001100001110000000001011000000000010111110100000000110100110000000000000000
00000011001001100000000111110111000000010010000000000001100011100000000000000000
11111011010011001111111001011000000000000110100100000000000010110000000000000000
11111110100011011111110001011110000000001000011111111110111010010000000000000000
11111110010001101111111011011011000000000001110111111110101010010000000000000000
00000000001111100000000001101101111111111100110011111100100110010000000000000000
00000001111111101111111110101010000000000001101011111111100000110000000000000000
11111111111110111111111101111111000000100100111000000010011111100000000000000000
11111111110101111111111001100000111111111111010100000001000101100000000000000000
11111111011010100000000011011010000000001011110111111111001000001111111101011101
11111111100101111111111011111010111111110010001100000000110101000000000000000000
11111111111111101111110010010000000000011111000011111110000111101111110110101000
00000001010111011111111011000000111111001111011000000001101111000000000000000000
11110011000110111111111111000101000001101110111100000000110110110000000000000000
11111111010011100000001001110110111111001000011000000000110000100000000000000000
11101010101010101110011010001010000000110111111000000010001100100000000000000000
11111011000001011111101010000000000000000110001100000000000101100000000000000000
11111111111110111111110101100100000000011011110100000000100010110000000000000000
11111110110100001111111101100000000000010011010100000000111111000000000000000000
11111111100001110000001010100010111111100100010000000000000001110000000000000000
11111110001010001111111100010011000000001100101111111110101101110000000000000000
00000000000110001111111010000100111111100001000100000000010011010000000000000000
11111111101111100000000101100001111111111010001100000000001100110000000000000000
00000001100101110000000110010101111111101010101000000000111010110000000000000000
11111111111010101111111100010011000000001101101000000000000001100000000000000000
11111111000110100000000101110001111111111100101000000001100010000000000000000000
00000001110000010000000010100110000000010011100011111110111101000000000000000000
11111110010111110000000101010110111111100010111111111110010101010000000000000000
00000000010110000000000011000110111111110101011000000001110100000000000000000000
11111101000001011111111110101011000000000000110011110111001001000000000000000000
00000000111110110000010010010001111111011101110000000010000011010000000000000000
00000011010101101111111011111000111111110111100000000001001100100000000000000000
11111111001000110000000011110110111111110111000100000000100111110000000000000000
11111100010000100000000110011101111111011011000111111100111011110000000000000000
00000000001001110000010101100111000000001111100011111100100110110000000000000000
11111011011010001111111000001101111111010101100000000001110100110000000000000000
00000001011010011111100011100110111111101100010111111101111001110000000000000000
00000000000011110000000001100000000000000000100111111111011101001111111111011000
00000000110000000000000001100111111111110111111100000000100111110000000000000000
00000000010110100000000001101011111111111001111100000000110000111111111110001011
00000000100111011111111110100011000000000110000000000000101101000000000000000000
00000000001110110000000001111011111111111000001100000000101111100000000110011100
00000001011110110000000001110001000000000111110100000000001110110000000000000000
00000010001101000000000111000111000000011010101011111111001101110000011100000011
00000000111100110000000111010000000000010100000100000001000100010000000000000000
11111101010001011111110010001001000000001000001000000000100111100000000000000000
00000000000111010000000011010011000000100001110000000011001010100000000000000000
00000010101111011111110010011000111111111010010011111111111100010000000000000000
11111110100001011111111101000000111111111110011000000010100001110000000000000000
00000001111100100000000000110011111111100001101100000000001010000000000000000000
11111110001101110000000011011100000000001001000100000001111101110000000000000000
11111111110000010000001111000000000000000100110111111011000100000000000000000000
11111101111010001111111111011010111111111111011111111110110110110000000000000000
00000000111001110000000111100110111111111111001000000010000101110000000000000000
11111111101001100000000010110101000000010000111111111101111101010000000000000000
00000000000100011111111111111111111111000010101000000011011100110000000000000000
00000001110000110000000111010101111111101101000000000001011011000000000000000000
00000010001001010000000110101110000000000000111011111110011001010000000000000000
00000011110001000000000000011111111111001111101011111110100011010000000000000000
00000001110001101111111100000000000000001000001011111101011000100000000000000000
00000001001000110000000010011011111111101101001100000000011100000000000000000000
00000001001100100000000100001011000000000010110011111110011111100000000000000000
00000000111010110000000011001011000000001011001011111110100011100000000000000000
11111111011100000000000010010101111111110011010000000000111101000000000000000000
00000000110010110000000101101100000000000110111011111110100011010000000000000000
00000000001000110000000000000001111111110100000111111111100101100000000000000000
11111111011001010000000011101011000000000111010000000000111111010000000000000000
11111111001011000000000011101101111111101011000011111111001011000000000000000000
11111110110011100000000101100010000000001001011000000000110100110000000000000000
00000001100010110000000001000111000000000011000011111110100110000000000000000000
11111111000000001111111101111001111111111001000000000000101010100000000000000000
00000000100110101111111111011111111111101101110000000000001000000000000000000000
00000000000111000000000100000000000000001001010100000000101010000000000000000000
11111111111001011111111001111100111111100111001111111111110101010000000000000000
11111110011110100000000011010001111111110011001111111111000110010000000000000000
00000000011101101111111101101101000000001000000111111110101100000000000000000000
00000000110101001111111010011101000000010101010011111111110100010000000000000000
11111101000110111111111101011111000000000101001111111101011100000000000000000000
00000000110011010000000011110111111110110000011100000000000101000000000000000000
00000000000001001111100010111110000000100011011000000000101010000000000000000000
00000011011011101111110100010111000000011101011000000010001001110000000000000000
11111101010111001111111101010100111111010110110111111110001101100000000000000000
00000100001001111111111011101101000010001010110000000001111111000000000000000000
00000001000101101111111010101010111111110110000000000001101001110000000000000000
00000011110101100000000000001011111111100000111111111110110010000000000000000000
11111101011010010000000010000110111111111000110111111101101110110000000000000000
00000000100101110000000001000010111111010011010100000001111001110000000000000000
00000001010001011111111101010001111111100011010000000001100000000000000000000000
11111101110101001111110111101111111101111011100100000000001111000000000000000000
00000000110001101111111001010100000000111110010100000000111010010000000000000000
00000100100011010000000010100010000000001010000100000000101111100000000000000000
00000000101110100000000100110000111011011010000100000010010110000000000000000000
11111101100000100000000101011000000000000011101111111111011010010000000000000000
00000000001111100000000000001111111111111011111100000000001110010000000001111110
00000000000001001111111110000000111111111010000000000000101010110000000000000000
00000000000010111111111110011100000000000100100111111111111110100000000010010110
11111111110101010000000000001000000000000110010000000000101110110000000000000000
11111111011011010000001100110110000000101100011011111111101110111111111100111110
00000000100110000000000000101111000000101011110000000010111000000000000000000000
00000001100000000000000000111010111111110111010000000000011000100000000010001110
00000001101001010000000101000011111111111111110011111111001111100000000000000000
11111110110011101111111001010101111111011001010000000000110001100000000000000000
00000001111101011111111101101111111111101111010100000000011000100000000000000000
00000000101111100000000000110110111100110101110100001000010111000000000000000000
00000000011011010000000010101101000000010101110000000010010001100000000000000000
11111011001100011111111110000101000000101011100111111111000101010000000000000000
00000010101001010000000011100101111111110111010011111001100111000000000000000000
00000000000101111111111011010110000000011110110100000000101011000000000000000000
00000011001010001111111100001101000000010001000011111011101110110000000000000000
00000010100101111111111110010110111111101011011100000010000101000000000000000000
00000001011111101111101010111011000001111000101000000000000000110000000000000000
11110101100100000000000010100111111110110100000011111101101100010000000000000000
11111111000001011111110000011001000000011011010100000011001010000000000000000000
11111111000110000000101101101010000000000011000011111001010001010000000000000000
11110111000101010000000011000011000000000111001100000011111011100000000000000000
11111110001001000000000001010001000000010111010000000000110101100000000000000000
11111111000001100000000010011001000000001100001100000101101011110000000000000000
00000010101101011111111101111000000000000110011000000000011001100000000000000000
11111111100111001111111010101010111111110010110100000001000100110000000000000000
11111111100100010000001010001110111111101011100000000000010011110000000000000000
00000001111011011111101101001010000000000000000111111110000000110000000000000000
11111101110000100000001010000011111111101010011011111111011011000000000000000000
00000000111110101111110010110001111111101011000100000011000000110000000000000000
00000001000100010000000101011010111111000001100111110111111101100000000000000000
00000001000111111111110000011100000000001111110100000010110001110000000000000000
11111100011110001111111100010110111111010011000000000011000010000000000000000000
00000001100000001111111101001010000000001100010100000001110000010000000000000000
11111111000111101111101011101010000000001111001100000010001011100000000000000000
11110110001101011111111111101000000000010000011011111100010111100000000000000000
11111100101101011111111111101110000000100000010000000000100011010000000000000000
11111111001111000000000110111011000000001101101111111111011111000000000000000000
11111100100101110000000000100101111111100001011011111111001110110000000000000000
00000001000010101111110101111101000000101110101100000010000011000000000000000000
11111111001100110000000000001111111111110101111000000000111101000000000000000000
00000000000001000000000101001010000000001011101000000000010010010000000000000000
00000000010011111111111100001010111111110110110011111110101000000000000000000000
00000000010001010000000001101011111111111000101100000001001011010000000000000000
00000000001000111111111101010111000000010111010011111111100100010000000000000000
00000000110101000000000000001010000000001110001011111110100001100000000000000000
11111111000110000000000000101010111111111111001000000000010110110000000000000000
11111111010101111111111101101111111111111011000011111110111101110000000000000000
00000000000110101111111010110011111111101110011111111111010111100000000000000000
00000000001001111111111010111110000000011000100011111111111001110000000000000000
11111111000000100000000001010101111111110111010000000001000000000000000000000000
00000001011110001111111011101000111111110010011000000000011111010000000000000000
11111111000111011111111011100100000000011000101111111111111100010000000000000000
00000000100100000000000011001001000000000001100111111111011010110000000000000000
00000001011111110000000101111001000000001011011111111111111010010000000000000000
11111111001000101111111101100011111111110001001100000000101100000000000000000000
11111111100111100000000110111001000000001110111000000010010101100000000000000000
11111111011010110000010011001010000000000010011100000000011001100000000000000000
11111111111111010000000100111100000000101110010100000001010101100000000000000000
00000010001100001111101110101100111101111010010011111101100110010000000000000000
00000001101000111111110010011010111111001110110011111110110111010000000000000000
00000000101000011111111101101110000000101100001011111111111111010000000000000000
11111111010000111111111001110011111111000001010011111111011100100000000000000000
11111110110001000000000001111110000000001001110000000000101110000000000000000000
11111111101111011111110100010011111111011110001011111011001011010000000000000000
11111111100001010000000010111101000000010011011011111111100010010000000000000000
00000001101101100000000010101110000000110010100000000010011101010000000000000000
00000000100000110000000001111100000000010010100000000001000111100000000000000000
11111111000001100000000100010011111111100111011000000000101101010000000000000000
00000111001011011111111011011101111111011011011000000000001100110000000000000000
11111111111001011111111101101110000000101010101100000001100100110000000000000000
11111111110100110000000001011101111111111001111100000000100111010000000000000000
11111111011001001111111110101111000000001000010011111111100001011111111111001010
11111111011101010000000011001001111111111011011000000000010000110000000000000000
11111111111101110000000000110100000000001010101100000000000111011111111110111000
11111111100010101111111111111011111111111001100000000000011100010000000000000000
00000001011001110000000000100101000000001001100100000011111001111111111110001000
00000010010011010000001111000101000000001111001011111111100001010000000000000000
11111010110001001111111001010010000000011110100011111101011100100000000100110001
11111111110111001111011001011001111111100111000000000010001101100000000000000000
00000001010110000000001010001010000000011101111111111100011100100000000000000000
00000000101001100000000000011111000000000000101100000011010011010000000000000000
11111111111110111111111110111010000000110100000000000000000111110000000000000000
11101011000010100000001000111011000000000011010111111101011010000000000000000000
11111111111101101111101101010001000000101001101100000010001010010000000000000000
11111101111100001111111011100011111110011010111111111010100011010000000000000000
11111011100110101111100011110000000001000111100100000001100110000000000000000000
00000000000000111111110111110011000000110010011011111000011101110000000000000000
00000001101011001111010101101101000000011011000111111100101100100000000000000000
11111011011010100000000000001011111111001011110011111100100011110000000000000000
00000010101111100000001000010110111111010001100111111111111000100000000000000000
00000001110110001111111011101000111010000101001011111111101101100000000000000000
00000010001100101111110110000101111111111001101011111100001111100000000000000000
11110011101111011111110010111100000000001111100100000001100100010000000000000000
00000010000110101111100111100001111111110011010000000000100010010000000000000000
00000000001101001111101000111110111111101101010011111011110000000000000000000000
00000001111111110000001001011000111111000011101011111111000101110000000000000000
11111111010111000000000100001100111111110101101000000010000001000000000000000000
11111010100111010000000101000110000000010010011011111110111100100000000000000000
00000100000110101111100101101001000000000000000100000000011000110000000000000000
11111110100101101111111011111011111111111000011000000000100100010000000000000000
00000000100010100000000111110001000000000101100100000001000111000000000000000000
11111111011001011111111010100111000000000000110000000001000010110000000000000000
00000001010001010000000010001000111111011010101000000011000100110000000000000000
11111100100101101111110111111101000000010101001011111111010001000000000000000000
00000000010110011111111011101000000000000000111111111100100010100000000000000000
11111110101110010000001001100001111111110111100000000000011010010000000000000000
11111100111100110000001001000111111101100101100111111110101111000000000000000000
00000001011100010000000001100100111111111111011111111111100001000000000000000000
11111101001010111111111010010001111111000001011100000000010001100000000000000000
11111110101100111111101101101101000000011000010011111110110000110000000000000000
11111001110100111111111101100001000001001010011011111110111100000000000000000000
11111111011100000000000001111101000000010100000000000000110010010000000000000000
00000000011110110000000001011000111111111110010011111111001001110000000000000000
00000000010110011111111110100101111111111100000011111110111111100000000000000000
11111110111010111111111100101010111111110001100111111110110011000000000000000000
11111110100110100000000001011111111111110010110111111111111101100000000000000000
11111111110111000000000101101101111111111101110011111111000111110000000000000000
11111111000000100000000011010111000000001010011000000001010000000000000000000000
00000000111101111111111110110010111111101101110000000000101000000000000000000000
00000001001011100000000001100101000000001001111111111111100001100000000000000000
11111110111001101111111101111000000000010011001011111111000001100000000000000000
00000001100001111111111101110011111111111110011011111110101011010000000000000000
00000001001110001111111110000101111111111111001111111110011110110000000000000000
11111111011010100000000001110010000000010011011011111111111111010000000000000000
00000000110000010000000001010001000000000111001111111111110000100000000000000000
11111111100111010000000011101010111111110111100011111111000100100000000000000000
00000000000111011111111010010011111111111101001000000001011110010000000000000000
00000010100111101111111100010111000000001011100100000010100001100000000000000000
11111111011111111111110000111111111111011011001011111110011010100000000000000000
00000000101000100000011000111100000000000110100000000001101111000000000000000000
11111111011001111111111110000110111111101001011111111111001010000000000000000000
00000010101000000000000011011111000000000101011111111111111100000000000000000000
11111100010001010000001011111000111111100101111111111101001001110000000000000000
00000010010110110000010000111001111111101111101000000001011010010000000000000000
00000001000000010000000010111100000000100110000000000001000111000000000000000000
00000000000100111111111010101110111111100110000111111111011101110000000000000000
11111110010110011111111100001110000000010100101000000000000110000000000000000000
11111110101111001111110111001001000000001001110100000001010111100000000000000000
11111111110111000000000101110001111111010000011000000001011101100000000000000000
11111100110011000000000010101010111111110110111111111110111110110000000000000000
00000000100000011111111000110100111110111110000100000001000111110000000000000000
00000001001001010000000101111111000000100011101111111101010111100000000000000000
11111111010000110000000100111111000000001011111100000001010111100000000000000000
11111111110010100000000010000101111111111010101011111111101001110000000010111101
11111111101000000000000000110111111111111001000011111111100100110000000000000000
11111111111101110000000001010011111111110101001111111111010111100000000001101011
00000000010010011111111111110110111111111000011100000000100010110000000000000000
11111101110011011111111011001101000000001011111011111000001110001111111101101010
00000011010100111111111110101001111111010110100000000010001101110000000000000000
00000000100000111111111110111101000000010111110100000010001001110000000010011100
00000010010100100000000010100000111111111001011000000010001001100000000000000000
11111110001101101111111100110111000000011011110011111100111000100000000000000000
11111111111100111111111111001100000000001001110100000011010010000000000000000000
11111110001100001111111110011110111111100001101100000001110101110000000000000000
11111100110000110000001010100111111110111001001000000001001111100000000000000000
00000001011010110000000011110010111111110110001100000100111000110000000000000000
11111101011010001111110010100011111111111011001100000001111001100000000000000000
00000000000001001111111011000101111111000000001111111011111011010000000000000000
11111111111001001111111111001010111111011101001111111101101000100000000000000000
00000010010111011111101110000000111111010101000100000010001011010000000000000000
11111101111110111111100000001001000000001101110100000000111101110000000000000000
11111100011000000000001011010100000000000011000011111110011010110000000000000000
11111010011000001111110100011000000000001001111111111110010010100000000000000000
00000000100111010000000011100111111111010101111100000001111100000000000000000000
11111111111010111111110110010011000000011100010011111111111100000000000000000000
11111111010100010000001010001101111101001000100100000000101101000000000000000000
00000000010110001111101011111110000000001101001000000010011110110000000000000000
11111111101001100000000001010000000000001001000000000001001001100000000000000000
00000000010110111111111010100010000000000110111111111110110110000000000000000000
00000100001001100000000101010011000000001011111000000001011010000000000000000000
11111111001001110000001100010101111111011001110100000000000110010000000000000000
00000010011100001111111100111011000000100001000100000011010100000000000000000000
11111011001100110000001001100010111111100110111100000000011010000000000000000000
00000011100110000000001000001101111111100110110011111110101010100000000000000000
11111011101001001111110001110000000000001000110011111011101101110000000000000000
11111111011100010000000000111010111110011010100111111111101011000000000000000000
00000000111000111111110101101011000000011001000011111101111000000000000000000000
00000000111010111111110010110001111111111001010000000001000000000000000000000000
11111111100110110000001101001000111111100100000011111111101110110000000000000000
11111111001100100000000101110101000000001110000000000001010011100000000000000000
11111100110100111111101000010101000000000011001100000000000110100000000000000000
11111111110011111111111000110100111110011010001100000000001100110000000000000000
11111111111111011111111000111100000000010011001011111111111011110000000000000000
11111101000010111111011100011111111111011111011100000111110101100000001101000101
11111101101010001111100110001111000010110100000111111100001010110000000000000000
00000110010011110000100101101011000001011110100111110011000101010000000000000000
00000110011010110000001000110110111111000110011111111100111000010000000000000000
00000110101101011111101010110010111111101100101011111100100011110000000000000000
11111010011100100000011011101101111111011101101100001001000101000000000000000000
00000011110110100000010011000001000001001101101000000100000111100000000000000000
00000010111010011111100101001101000000010000101011111011000000010000000000000000
00000000111101101111101110110000000000010100011011111100000011010000000000000000
11111101101001101111111001010100111111011000010011111111011000110000000000000000
11111100100111011111101110101001111110111010101011111111001111010000000000000000
11111100111110111111110011010010000000010001101000000001001111100000000000000000
00000000110110001111111001011101000000100100000111111000110000010000000000000000
11111011011000110000000110000101111111101110011011111100000000010000000000000000
00000010011110110000000101110001000000011001110100000010111010110000000000000000
00000000101100011111101100100111000000101011011011111110111000100000000000000000
